{
    "<PAD>": 0,
    "<UNK>": 1,
    "<BOS>": 2,
    "<EOS>": 3,
    "<USER>": 4,
    "<ASSISTANT>": 5,
    "▁": 6,
    "w": 7,
    "h": 8,
    "a": 9,
    "t": 10,
    "i": 11,
    "s": 12,
    "v": 13,
    "r": 14,
    "b": 15,
    "l": 16,
    "e": 17,
    "?": 18,
    "n": 19,
    "m": 20,
    "d": 21,
    "p": 22,
    "c": 23,
    "u": 24,
    "o": 25,
    ".": 26,
    "y": 27,
    "f": 28,
    "g": 29,
    "q": 30,
    "x": 31,
    "k": 32,
    ",": 33,
    "z": 34,
    "j": 35,
    "'": 36,
    ":": 37,
    "▁a": 38,
    "▁d": 39,
    "at": 40,
    "▁i": 41,
    "▁c": 42,
    "▁w": 43,
    "es": 44,
    "on": 45,
    "er": 46,
    "▁t": 47,
    "hat": 48,
    "▁is": 49,
    "in": 50,
    "or": 51,
    "▁do": 52,
    "▁an": 53,
    "en": 54,
    "▁p": 55,
    "▁what": 56,
    "▁s": 57,
    "ion": 58,
    "le": 59,
    "al": 60,
    "ct": 61,
    "ou": 62,
    "re": 63,
    "▁in": 64,
    "an": 65,
    "▁de": 66,
    "ro": 67,
    "ho": 68,
    "ent": 69,
    "▁v": 70,
    "▁o": 71,
    "▁co": 72,
    "ra": 73,
    "fin": 74,
    "▁b": 75,
    "▁pro": 76,
    "▁f": 77,
    "it": 78,
    "lo": 79,
    "ed": 80,
    "▁ho": 81,
    "▁defin": 82,
    "▁how": 83,
    "▁m": 84,
    "ar": 85,
    "▁does": 86,
    "▁st": 87,
    "▁y": 88,
    "▁define": 89,
    "▁you": 90,
    "ing": 91,
    "ue": 92,
    "▁to": 93,
    "ss": 94,
    "de": 95,
    "ram": 96,
    "la": 97,
    "▁re": 98,
    "ction": 99,
    "ble": 100,
    "▁val": 101,
    "st": 102,
    "▁prog": 103,
    "▁program": 104,
    "ment": 105,
    "▁cla": 106,
    "▁class": 107,
    "he": 108,
    "▁e": 109,
    "ari": 110,
    "ce": 111,
    "▁code": 112,
    "▁lo": 113,
    "▁me": 114,
    "able": 115,
    "un": 116,
    "▁vari": 117,
    "▁variable": 118,
    "▁of": 119,
    "▁or": 120,
    "us": 121,
    "▁value": 122,
    "▁the": 123,
    "▁con": 124,
    "op": 125,
    "▁that": 126,
    "ter": 127,
    "ation": 128,
    "▁and": 129,
    "▁com": 130,
    "hi": 131,
    "her": 132,
    "▁be": 133,
    "res": 134,
    "▁dat": 135,
    "▁data": 136,
    "▁loop": 137,
    "ect": 138,
    "ld": 139,
    "if": 140,
    "▁us": 141,
    "▁l": 142,
    "ha": 143,
    "▁ex": 144,
    "▁fun": 145,
    "▁function": 146,
    "▁can": 147,
    "ate": 148,
    "▁ob": 149,
    "▁obj": 150,
    "▁object": 151,
    "▁n": 152,
    "▁mean": 153,
    "▁str": 154,
    "ic": 155,
    "vi": 156,
    "▁comp": 157,
    "▁used": 158,
    "per": 159,
    "ec": 160,
    "ition": 161,
    "err": 162,
    "ould": 163,
    "ts": 164,
    "ut": 165,
    "▁stor": 166,
    "pres": 167,
    "▁al": 168,
    "ck": 169,
    "ul": 170,
    "ot": 171,
    "ur": 172,
    "▁would": 173,
    "ly": 174,
    "ith": 175,
    "ta": 176,
    "▁tr": 177,
    "▁cond": 178,
    "▁condition": 179,
    "▁err": 180,
    "▁error": 181,
    "low": 182,
    "▁whi": 183,
    "▁while": 184,
    "ps": 185,
    "ces": 186,
    "▁inst": 187,
    "▁dif": 188,
    "▁diff": 189,
    "▁differ": 190,
    "▁true": 191,
    "▁met": 192,
    "▁metho": 193,
    "▁method": 194,
    "▁state": 195,
    "▁statement": 196,
    "sion": 197,
    "▁oper": 198,
    "lows": 199,
    "▁for": 200,
    "ib": 201,
    "▁on": 202,
    "ge": 203,
    "▁with": 204,
    "▁se": 205,
    "▁allows": 206,
    "ues": 207,
    "▁fro": 208,
    "▁from": 209,
    "qu": 210,
    "▁po": 211,
    "▁values": 212,
    "cess": 213,
    "ance": 214,
    "du": 215,
    "oo": 216,
    "ure": 217,
    "lement": 218,
    "▁so": 219,
    "▁boo": 220,
    "▁boole": 221,
    "▁boolean": 222,
    "▁ar": 223,
    "▁stru": 224,
    "▁struct": 225,
    "▁structure": 226,
    "ated": 227,
    "▁exec": 228,
    "▁execut": 229,
    "▁r": 230,
    "mor": 231,
    "▁different": 232,
    "▁ab": 233,
    "▁dec": 234,
    "▁par": 235,
    "pe": 236,
    "ents": 237,
    "▁beha": 238,
    "▁operat": 239,
    "▁operator": 240,
    "▁sy": 241,
    "tw": 242,
    "ical": 243,
    "▁int": 244,
    "im": 245,
    "▁string": 246,
    "▁its": 247,
    "are": 248,
    "▁mo": 249,
    "▁programm": 250,
    "ence": 251,
    "ract": 252,
    "for": 253,
    "form": 254,
    "▁pa": 255,
    "▁provi": 256,
    "▁g": 257,
    "ke": 258,
    "▁element": 259,
    "▁by": 260,
    "▁behavi": 261,
    "▁behavior": 262,
    "▁ass": 263,
    "▁one": 264,
    "▁abst": 265,
    "▁repres": 266,
    "iv": 267,
    "▁run": 268,
    "▁col": 269,
    "▁colle": 270,
    "▁collection": 271,
    "▁ac": 272,
    "▁access": 273,
    "ther": 274,
    "ug": 275,
    "▁log": 276,
    "▁inher": 277,
    "▁inherit": 278,
    "se": 279,
    "▁cal": 280,
    "▁programming": 281,
    "▁logical": 282,
    "dent": 283,
    "▁inter": 284,
    "gu": 285,
    "▁expres": 286,
    "▁expression": 287,
    "ig": 288,
    "ign": 289,
    "▁instr": 290,
    "▁instru": 291,
    "▁instruction": 292,
    "▁are": 293,
    "▁ret": 294,
    "▁retur": 295,
    "▁return": 296,
    "mb": 297,
    "▁te": 298,
    "ls": 299,
    "▁reus": 300,
    "des": 301,
    "age": 302,
    "iz": 303,
    "▁assign": 304,
    "▁fi": 305,
    "rect": 306,
    "ding": 307,
    "▁modu": 308,
    "▁module": 309,
    "am": 310,
    "▁store": 311,
    "ers": 312,
    "▁represents": 313,
    "▁ma": 314,
    "rib": 315,
    "▁wh": 316,
    "▁when": 317,
    "▁sp": 318,
    "ult": 319,
    "ist": 320,
    "▁anot": 321,
    "▁another": 322,
    "▁syn": 323,
    "▁synta": 324,
    "▁syntax": 325,
    "▁res": 326,
    "▁lib": 327,
    "▁libra": 328,
    "▁librar": 329,
    "▁library": 330,
    "▁en": 331,
    "▁sequ": 332,
    "▁ha": 333,
    "▁fal": 334,
    "▁false": 335,
    "▁defines": 336,
    "▁it": 337,
    "▁blo": 338,
    "▁block": 339,
    "▁per": 340,
    "▁perform": 341,
    "▁provides": 342,
    "▁repe": 343,
    "▁assignment": 344,
    "ant": 345,
    "▁un": 346,
    "▁not": 347,
    "▁sou": 348,
    "▁sour": 349,
    "▁source": 350,
    "▁sof": 351,
    "▁softw": 352,
    "▁software": 353,
    "▁comment": 354,
    "▁ap": 355,
    "▁api": 356,
    "ity": 357,
    "▁inheritance": 358,
    "▁enc": 359,
    "▁enca": 360,
    "▁encaps": 361,
    "▁encapsul": 362,
    "▁encapsulation": 363,
    "▁poly": 364,
    "▁polymor": 365,
    "▁polymorp": 366,
    "▁polymorphi": 367,
    "▁polymorphis": 368,
    "▁polymorphism": 369,
    "▁abstra": 370,
    "▁abstraction": 371,
    "▁stores": 372,
    "▁nu": 373,
    "▁numb": 374,
    "▁sequence": 375,
    "▁conta": 376,
    "▁contain": 377,
    "▁spec": 378,
    "▁ke": 379,
    "der": 380,
    "▁objects": 381,
    "▁instance": 382,
    "han": 383,
    "▁compu": 384,
    "▁computer": 385,
    "▁bug": 386,
    "cur": 387,
    "▁parent": 388,
    "▁chi": 389,
    "▁child": 390,
    "▁inte": 391,
    "▁integ": 392,
    "▁cha": 393,
    "▁charact": 394,
    "▁wor": 395,
    "▁flo": 396,
    "▁float": 397,
    "ve": 398,
    "as": 399,
    "▁specif": 400,
    "▁param": 401,
    "▁parame": 402,
    "▁parameter": 403,
    "▁call": 404,
    "▁argu": 405,
    "▁argument": 406,
    "th": 407,
    "▁const": 408,
    "▁instructions": 409,
    "▁wr": 410,
    "▁ident": 411,
    "▁identif": 412,
    "▁at": 413,
    "▁im": 414,
    "▁imp": 415,
    "ging": 416,
    "ial": 417,
    "ame": 418,
    "rou": 419,
    "▁arra": 420,
    "▁array": 421,
    "▁list": 422,
    "▁cre": 423,
    "ates": 424,
    "▁constant": 425,
    "▁execution": 426,
    "▁memor": 427,
    "▁memory": 428,
    "▁writ": 429,
    "ten": 430,
    "orrect": 431,
    "ack": 432,
    "em": 433,
    "▁interf": 434,
    "▁interfa": 435,
    "▁interface": 436,
    "ality": 437,
    "▁rel": 438,
    "bl": 439,
    "▁proper": 440,
    "▁propert": 441,
    "ier": 442,
    "▁integer": 443,
    "▁number": 444,
    "out": 445,
    "▁decim": 446,
    "▁decimal": 447,
    "▁ty": 448,
    "▁type": 449,
    "ded": 450,
    "▁order": 451,
    "eral": 452,
    "▁ad": 453,
    "▁proble": 454,
    "▁problem": 455,
    "▁fir": 456,
    "▁first": 457,
    "▁classes": 458,
    "▁related": 459,
    "▁reuse": 460,
    "ines": 461,
    "▁betw": 462,
    "▁betwe": 463,
    "▁between": 464,
    "▁sc": 465,
    "▁scop": 466,
    "▁scope": 467,
    "▁loc": 468,
    "▁local": 469,
    "▁equ": 470,
    "▁use": 471,
    "ort": 472,
    "▁tex": 473,
    "▁text": 474,
    "▁stored": 475,
    "▁work": 476,
    "▁have": 477,
    "▁des": 478,
    "▁tel": 479,
    "▁tells": 480,
    "▁specific": 481,
    "ives": 482,
    "▁repeat": 483,
    "▁same": 484,
    "▁ov": 485,
    "▁elements": 486,
    "▁accessed": 487,
    "▁org": 488,
    "▁organ": 489,
    "▁organiz": 490,
    "▁key": 491,
    "▁keyw": 492,
    "▁keywor": 493,
    "▁keyword": 494,
    "▁operation": 495,
    "▁chan": 496,
    "here": 497,
    "▁programs": 498,
    "▁comple": 499,
    "il": 500,
    "▁le": 501,
    "▁h": 502,
    "▁inc": 503,
    "▁result": 504,
    "que": 505,
    "▁iter": 506,
    "▁iteration": 507,
    "▁inde": 508,
    "▁conc": 509,
    "▁grou": 510,
    "ide": 511,
    "▁difference": 512,
    "▁init": 513,
    "▁initial": 514,
    "▁compari": 515,
    "▁comparis": 516,
    "▁comparison": 517,
    "▁conditions": 518,
    "▁cou": 519,
    "▁coun": 520,
    "finit": 521,
    "finite": 522,
    "▁property": 523,
    "▁att": 524,
    "▁attrib": 525,
    "▁attribut": 526,
    "▁attribute": 527,
    "▁part": 528,
    "▁tw": 529,
    "▁two": 530,
    "▁desc": 531,
    "▁describ": 532,
    "▁describes": 533,
    "▁tas": 534,
    "▁task": 535,
    "▁runs": 536,
    "▁mult": 537,
    "▁multi": 538,
    "▁multip": 539,
    "▁multiple": 540,
    "▁he": 541,
    "▁hel": 542,
    "▁helps": 543,
    "iated": 544,
    "▁bel": 545,
    "▁belon": 546,
    "▁if": 547,
    "▁whe": 548,
    "▁whether": 549,
    "ol": 550,
    "▁poin": 551,
    "▁pointer": 552,
    "▁where": 553,
    "▁alg": 554,
    "▁algor": 555,
    "▁algorith": 556,
    "▁algorithm": 557,
    "▁compil": 558,
    "▁compiler": 559,
    "▁into": 560,
    "▁written": 561,
    "▁ca": 562,
    "▁caus": 563,
    "▁produ": 564,
    "▁recur": 565,
    "▁recursion": 566,
    "▁stack": 567,
    "▁que": 568,
    "▁queue": 569,
    "▁process": 570,
    "▁har": 571,
    "▁hard": 572,
    "▁hardw": 573,
    "▁hardware": 574,
    "▁index": 575,
    "ies": 576,
    "▁import": 577,
    "▁methods": 578,
    "▁toge": 579,
    "▁together": 580,
    "▁pr": 581,
    "▁priv": 582,
    "▁private": 583,
    "▁pu": 584,
    "▁publ": 585,
    "▁public": 586,
    "▁overr": 587,
    "▁overri": 588,
    "▁overriding": 589,
    "▁abstract": 590,
    "▁bot": 591,
    "▁both": 592,
    "▁glo": 593,
    "▁glob": 594,
    "▁global": 595,
    "▁inform": 596,
    "▁information": 597,
    "▁decl": 598,
    "▁declar": 599,
    "▁declaration": 600,
    "▁initializ": 601,
    "▁initialization": 602,
    "▁lit": 603,
    "▁literal": 604,
    "▁identifier": 605,
    "▁runt": 606,
    "▁runtim": 607,
    "▁runtime": 608,
    "▁deb": 609,
    "▁debug": 610,
    "▁debugging": 611,
    "▁equality": 612,
    "▁counter": 613,
    "▁infinite": 614,
    "▁nes": 615,
    "▁nest": 616,
    "▁nested": 617,
    "▁character": 618,
    "▁len": 619,
    "▁leng": 620,
    "▁length": 621,
    "▁concat": 622,
    "▁concaten": 623,
    "▁concatenation": 624,
    "▁indent": 625,
    "▁indentation": 626,
    "▁pack": 627,
    "▁package": 628,
    "▁reusable": 629,
    "▁executes": 630,
    "▁set": 631,
    "eps": 632,
    "▁rem": 633,
    "ins": 634,
    "▁organize": 635,
    "▁provide": 636,
    "▁make": 637,
    "▁deci": 638,
    "▁decision": 639,
    "val": 640,
    "▁deter": 641,
    "▁determ": 642,
    "▁dur": 643,
    "▁during": 644,
    "▁fix": 645,
    "▁rea": 646,
    "▁contains": 647,
    "ules": 648,
    "▁lan": 649,
    "▁langu": 650,
    "▁language": 651,
    "fect": 652,
    "▁incorrect": 653,
    "▁oc": 654,
    "▁occur": 655,
    "▁occurs": 656,
    "▁added": 657,
    "▁item": 658,
    "▁means": 659,
    "ys": 660,
    "▁compon": 661,
    "▁components": 662,
    "▁other": 663,
    "▁comm": 664,
    "▁pi": 665,
    "▁pie": 666,
    "▁piece": 667,
    "▁mak": 668,
    "▁makes": 669,
    "▁comb": 670,
    "▁groups": 671,
    "▁deta": 672,
    "▁detai": 673,
    "▁details": 674,
    "▁di": 675,
    "▁direct": 676,
    "▁hi": 677,
    "pen": 678,
    "▁nam": 679,
    "▁without": 680,
    "▁characters": 681,
    "▁represent": 682,
    "▁performs": 683,
    "▁rece": 684,
    "▁repeats": 685,
    "▁runn": 686,
    "▁running": 687,
    "▁pos": 688,
    "▁position": 689,
    "▁man": 690,
    "▁created": 691,
    "▁asso": 692,
    "▁assoc": 693,
    "▁associated": 694,
    "▁action": 695,
    "▁eval": 696,
    "▁evalu": 697,
    "▁evaluates": 698,
    "▁som": 699,
    "▁some": 700,
    "▁someth": 701,
    "▁something": 702,
    "▁mod": 703,
    "▁gives": 704,
    "ged": 705,
    "▁correct": 706,
    "▁cause": 707,
    "▁af": 708,
    "ved": 709,
    "▁containing": 710,
    "▁ph": 711,
    "▁phys": 712,
    "▁physical": 713,
    "▁syst": 714,
    "▁system": 715,
    "▁unit": 716,
    "▁av": 717,
    "▁ava": 718,
    "▁avai": 719,
    "▁availa": 720,
    "▁available": 721,
    "▁combines": 722,
    "▁fe": 723,
    "▁feat": 724,
    "▁cont": 725,
    "▁intern": 726,
    "▁internal": 727,
    "▁only": 728,
    "▁hiding": 729,
    "ess": 730,
    "▁implement": 731,
    "▁complex": 732,
    "▁directly": 733,
    "▁but": 734,
    "▁determines": 735,
    "▁ins": 736,
    "▁inside": 737,
    "cks": 738,
    "▁named": 739,
    "▁pla": 740,
    "▁who": 741,
    "▁whole": 742,
    "▁no": 743,
    "▁as": 744,
    "▁numbers": 745,
    "▁parts": 746,
    "▁calle": 747,
    "▁called": 748,
    "ive": 749,
    "▁repeated": 750,
    "▁keeps": 751,
    "▁rema": 752,
    "▁ordered": 753,
    "▁wa": 754,
    "▁bl": 755,
    "▁blue": 756,
    "▁bluep": 757,
    "▁bluepr": 758,
    "▁blueprin": 759,
    "▁blueprint": 760,
    "▁defined": 761,
    "▁belong": 762,
    "▁sh": 763,
    "▁should": 764,
    "▁decisions": 765,
    "▁symb": 766,
    "▁symbol": 767,
    "chan": 768,
    "▁change": 769,
    "▁fixed": 770,
    "▁add": 771,
    "▁addres": 772,
    "▁address": 773,
    "▁hold": 774,
    "▁sol": 775,
    "▁complet": 776,
    "▁execute": 777,
    "▁writing": 778,
    "▁statements": 779,
    "▁affect": 780,
    "▁pre": 781,
    "▁ind": 782,
    "▁back": 783,
    "▁itse": 784,
    "▁itsel": 785,
    "▁itself": 786,
    "▁fol": 787,
    "▁they": 788,
    "▁executed": 789,
    "▁exp": 790,
    "▁identify": 791,
    "▁specifies": 792,
    "▁commun": 793,
    "▁communic": 794,
    "▁communicate": 795,
    "▁intera": 796,
    "▁interact": 797,
    "▁functionality": 798,
    "▁belonging": 799,
    "▁varia": 800,
    "▁variabl": 801,
    "▁variables": 802,
    "▁produce": 803,
    "▁der": 804,
    "▁lim": 805,
    "▁limit": 806,
    "▁within": 807,
    "▁ou": 808,
    "▁outs": 809,
    "▁outside": 810,
    "▁lets": 811,
    "▁inherited": 812,
    "▁implementation": 813,
    "▁featu": 814,
    "▁features": 815,
    "▁eas": 816,
    "▁easier": 817,
    "▁requ": 818,
    "▁requi": 819,
    "ds": 820,
    "▁chang": 821,
    "▁changes": 822,
    "▁word": 823,
    "▁hap": 824,
    "▁happen": 825,
    "▁che": 826,
    "▁checks": 827,
    "▁stop": 828,
    "▁modules": 829,
    "▁place": 830,
    "▁may": 831,
    "ible": 832,
    "▁k": 833,
    "▁kin": 834,
    "▁kind": 835,
    "▁working": 836,
    "▁receives": 837,
    "▁receive": 838,
    "▁inp": 839,
    "▁input": 840,
    "▁pass": 841,
    "▁passed": 842,
    "▁repeatedly": 843,
    "▁tim": 844,
    "▁times": 845,
    "▁th": 846,
    "▁throu": 847,
    "▁throug": 848,
    "▁through": 849,
    "ong": 850,
    "▁manage": 851,
    "▁sev": 852,
    "▁several": 853,
    "▁way": 854,
    "▁organizes": 855,
    "ently": 856,
    "▁create": 857,
    "▁belongs": 858,
    "ose": 859,
    "▁mor": 860,
    "▁more": 861,
    "▁inten": 862,
    "▁intended": 863,
    "▁remain": 864,
    "▁unchan": 865,
    "▁unchanged": 866,
    "▁steps": 867,
    "▁solv": 868,
    "▁tran": 869,
    "▁trans": 870,
    "▁transl": 871,
    "▁translates": 872,
    "▁form": 873,
    "▁read": 874,
    "▁rules": 875,
    "id": 876,
    "▁mu": 877,
    "▁must": 878,
    "▁defect": 879,
    "▁causes": 880,
    "▁incorrectly": 881,
    "▁mist": 882,
    "▁mista": 883,
    "▁mistake": 884,
    "▁une": 885,
    "▁unex": 886,
    "▁unexp": 887,
    "▁unexpect": 888,
    "▁unexpected": 889,
    "▁prev": 890,
    "▁prevents": 891,
    "▁correctly": 892,
    "ced": 893,
    "▁calls": 894,
    "▁follows": 895,
    "▁la": 896,
    "▁last": 897,
    "▁out": 898,
    "▁remo": 899,
    "▁removed": 900,
    "▁items": 901,
    "▁produces": 902,
    "▁pe": 903,
    "▁peop": 904,
    "▁people": 905,
    "▁reading": 906,
    "▁expla": 907,
    "▁explains": 908,
    "▁affecting": 909,
    "▁tasks": 910,
    "▁creat": 911,
    "▁creating": 912,
    "▁cons": 913,
    "▁incl": 914,
    "▁inclu": 915,
    "▁repet": 916,
    "▁repetition": 917,
    "▁functions": 918,
    "▁systems": 919,
    "▁sep": 920,
    "▁separ": 921,
    "▁separate": 922,
    "▁using": 923,
    "▁operators": 924,
    "▁complete": 925,
    "▁properties": 926,
    "▁inherits": 927,
    "▁exten": 928,
    "▁extend": 929,
    "ping": 930,
    "▁contro": 931,
    "▁control": 932,
    "▁controll": 933,
    "▁controlling": 934,
    "▁prot": 935,
    "▁protect": 936,
    "▁protects": 937,
    "▁limits": 938,
    "▁resp": 939,
    "▁respon": 940,
    "▁respond": 941,
    "▁common": 942,
    "▁unn": 943,
    "▁unnec": 944,
    "▁unnecess": 945,
    "▁unnecessar": 946,
    "▁unnecessary": 947,
    "▁ess": 948,
    "▁essent": 949,
    "▁essential": 950,
    "▁instant": 951,
    "▁instantiated": 952,
    "red": 953,
    "▁integers": 954,
    "▁floats": 955,
    "▁depen": 956,
    "▁lists": 957,
    "▁arrays": 958,
    "▁bugs": 959,
    "▁errors": 960,
    "ations": 961,
    "ider": 962,
    "▁about": 963,
    "▁sets": 964,
    "▁star": 965,
    "▁reser": 966,
    "▁reserved": 967,
    "▁has": 968,
    "▁name": 969,
    "▁happens": 970,
    "▁fin": 971,
    "▁programmers": 972,
    "▁equal": 973,
    "▁requires": 974,
    "▁returns": 975,
    "▁lea": 976,
    "▁least": 977,
    "▁rev": 978,
    "▁revers": 979,
    "▁reverses": 980,
    "▁tra": 981,
    "▁many": 982,
    "▁arr": 983,
    "▁arran": 984,
    "▁arranged": 985,
    "▁indi": 986,
    "▁indivi": 987,
    "▁individu": 988,
    "▁individual": 989,
    "▁sing": 990,
    "▁single": 991,
    "▁group": 992,
    "▁j": 993,
    "▁jo": 994,
    "▁joins": 995,
    "▁strings": 996,
    "▁spa": 997,
    "▁port": 998,
    "▁portion": 999,
    "▁decimals": 1000,
    "▁poss": 1001,
    "▁possible": 1002,
    "▁represented": 1003,
    "▁ne": 1004,
    "▁need": 1005,
    "▁needed": 1006,
    "▁provided": 1007,
    "▁over": 1008,
    "▁ran": 1009,
    "▁range": 1010,
    "▁go": 1011,
    "▁going": 1012,
    "▁long": 1013,
    "▁remains": 1014,
    "▁ef": 1015,
    "▁eff": 1016,
    "▁effic": 1017,
    "▁effici": 1018,
    "▁efficiently": 1019,
    "▁bas": 1020,
    "▁based": 1021,
    "▁cho": 1022,
    "▁choose": 1023,
    "▁determin": 1024,
    "▁determine": 1025,
    "▁calc": 1026,
    "▁calcul": 1027,
    "▁calculate": 1028,
    "▁compare": 1029,
    "▁modif": 1030,
    "▁modify": 1031,
    "▁holds": 1032,
    "▁addresses": 1033,
    "▁storage": 1034,
    "▁area": 1035,
    "▁solve": 1036,
    "▁completing": 1037,
    "▁solving": 1038,
    "▁conv": 1039,
    "▁conver": 1040,
    "▁converts": 1041,
    "▁executable": 1042,
    "▁low": 1043,
    "▁lower": 1044,
    "▁leve": 1045,
    "▁level": 1046,
    "▁programmer": 1047,
    "▁hu": 1048,
    "▁hum": 1049,
    "▁human": 1050,
    "▁readable": 1051,
    "▁valid": 1052,
    "▁behave": 1053,
    "▁resul": 1054,
    "▁results": 1055,
    "▁affects": 1056,
    "▁indic": 1057,
    "▁indicates": 1058,
    "▁went": 1059,
    "▁wrong": 1060,
    "▁sent": 1061,
    "▁produced": 1062,
    "▁caller": 1063,
    "▁tec": 1064,
    "▁tech": 1065,
    "▁techn": 1066,
    "▁techni": 1067,
    "▁technique": 1068,
    "▁solves": 1069,
    "▁calling": 1070,
    "▁most": 1071,
    "▁rec": 1072,
    "▁recently": 1073,
    "▁processes": 1074,
    "▁wer": 1075,
    "▁were": 1076,
    "▁note": 1077,
    "▁performing": 1078,
    "▁non": 1079,
    "▁allow": 1080,
    "▁consist": 1081,
    "▁consists": 1082,
    "▁include": 1083,
    "▁includes": 1084,
    "▁bu": 1085,
    "▁bui": 1086,
    "▁build": 1087,
    "▁cy": 1088,
    "▁cyc": 1089,
    "▁cycle": 1090,
    "▁reused": 1091,
    "▁sha": 1092,
    "▁share": 1093,
    "▁br": 1094,
    "▁bring": 1095,
    "▁brings": 1096,
    "▁el": 1097,
    "▁else": 1098,
    "▁elsew": 1099,
    "▁elsewhere": 1100,
    "▁concre": 1101,
    "▁concret": 1102,
    "▁concrete": 1103,
    "▁feature": 1104,
    "▁derives": 1105,
    "▁deriv": 1106,
    "▁derived": 1107,
    "▁pract": 1108,
    "▁practi": 1109,
    "▁practice": 1110,
    "▁kee": 1111,
    "▁keeping": 1112,
    "▁rest": 1113,
    "▁restr": 1114,
    "▁restri": 1115,
    "▁restrict": 1116,
    "▁restricted": 1117,
    "▁accessible": 1118,
    "▁ways": 1119,
    "▁abil": 1120,
    "▁ability": 1121,
    "▁ow": 1122,
    "▁own": 1123,
    "▁ver": 1124,
    "▁version": 1125,
    "▁rep": 1126,
    "▁repla": 1127,
    "▁replace": 1128,
    "▁expo": 1129,
    "▁expos": 1130,
    "▁exposes": 1131,
    "▁cann": 1132,
    "▁cannot": 1133,
    "▁design": 1134,
    "▁designed": 1135,
    "▁rat": 1136,
    "▁rather": 1137,
    "▁than": 1138,
    "▁ba": 1139,
    "▁base": 1140,
    "▁contract": 1141,
    "▁required": 1142,
    "▁parameters": 1143,
    "▁arguments": 1144,
    "▁constan": 1145,
    "▁constants": 1146,
    "▁changing": 1147,
    "▁collections": 1148,
    "▁thei": 1149,
    "▁their": 1150,
    "▁depend": 1151,
    "▁behaviors": 1152,
    "▁coding": 1153,
    "▁often": 1154,
    "▁sequen": 1155,
    "▁sequences": 1156,
    "▁depends": 1157,
    "▁loops": 1158,
    "▁commonly": 1159,
    "▁sit": 1160,
    "▁situ": 1161,
    "▁situations": 1162,
    "▁chat": 1163,
    "▁chatg": 1164,
    "▁chatgp": 1165,
    "▁chatgpt": 1166,
    "▁dit": 1167,
    "▁limited": 1168,
    "▁wider": 1169,
    "▁decla": 1170,
    "▁declared": 1171,
    "▁processed": 1172,
    "▁intro": 1173,
    "▁introdu": 1174,
    "▁introduces": 1175,
    "▁creates": 1176,
    "▁identifies": 1177,
    "▁assigning": 1178,
    "▁start": 1179,
    "▁starting": 1180,
    "▁special": 1181,
    "▁meaning": 1182,
    "▁prede": 1183,
    "▁predefin": 1184,
    "▁predefined": 1185,
    "▁pur": 1186,
    "▁purp": 1187,
    "▁purpose": 1188,
    "▁names": 1189,
    "▁follow": 1190,
    "▁inval": 1191,
    "▁invalid": 1192,
    "▁being": 1193,
    "▁under": 1194,
    "▁underst": 1195,
    "▁understoo": 1196,
    "▁understood": 1197,
    "▁after": 1198,
    "▁starts": 1199,
    "▁behav": 1200,
    "▁behaves": 1201,
    "▁logic": 1202,
    "▁finding": 1203,
    "▁fixing": 1204,
    "▁identifying": 1205,
    "▁problems": 1206,
    "▁correcting": 1207,
    "▁them": 1208,
    "▁find": 1209,
    "▁relations": 1210,
    "▁relationshi": 1211,
    "▁relationship": 1212,
    "▁consider": 1213,
    "▁considered": 1214,
    "▁eit": 1215,
    "▁either": 1216,
    "▁states": 1217,
    "▁yes": 1218,
    "▁all": 1219,
    "▁combin": 1220,
    "▁combined": 1221,
    "▁tracks": 1222,
    "▁iterations": 1223,
    "▁count": 1224,
    "▁repetitions": 1225,
    "▁track": 1226,
    "▁contin": 1227,
    "▁continues": 1228,
    "▁reac": 1229,
    "▁reach": 1230,
    "▁reaching": 1231,
    "▁stopping": 1232,
    "▁indefinite": 1233,
    "▁indefinitely": 1234,
    "▁placed": 1235,
    "▁let": 1236,
    "▁letter": 1237,
    "▁siz": 1238,
    "▁size": 1239,
    "▁sen": 1240,
    "▁sends": 1241,
    "▁ends": 1242,
    "▁stops": 1243,
    "▁section": 1244,
    "▁spac": 1245,
    "▁spacing": 1246,
    "▁uses": 1247,
    "▁spaces": 1248,
    "▁ta": 1249,
    "▁tab": 1250,
    "▁tabs": 1251,
    "▁file": 1252,
    "▁lar": 1253,
    "▁larg": 1254,
    "▁larger": 1255,
    "▁made": 1256,
    "▁exchan": 1257,
    "▁exchange": 1258,
    "▁ent": 1259,
    "▁entity": 1260,
    "▁derive": 1261,
    "▁exist": 1262,
    "▁existing": 1263,
    "▁unw": 1264,
    "▁unwant": 1265,
    "▁unwanted": 1266,
    "▁hides": 1267,
    "▁sho": 1268,
    "▁show": 1269,
    "▁shows": 1270,
    "▁complexity": 1271,
    "▁differently": 1272,
    "▁implementations": 1273
}