{
    "<PAD>": 0,
    "<UNK>": 1,
    "<BOS>": 2,
    "<EOS>": 3,
    "<USER>": 4,
    "<ASSISTANT>": 5,
    "▁": 6,
    "W": 7,
    "h": 8,
    "a": 9,
    "t": 10,
    "i": 11,
    "s": 12,
    "v": 13,
    "r": 14,
    "b": 15,
    "l": 16,
    "e": 17,
    "n": 18,
    "p": 19,
    "o": 20,
    "g": 21,
    "m": 22,
    "?": 23,
    "A": 24,
    "d": 25,
    "c": 26,
    "u": 27,
    "x": 28,
    ".": 29,
    "f": 30,
    "y": 31,
    "w": 32,
    "k": 33,
    ",": 34,
    "z": 35,
    "B": 36,
    "q": 37,
    "R": 38,
    "'": 39,
    "T": 40,
    "S": 41,
    "O": 42,
    "C": 43,
    "L": 44,
    "Q": 45,
    "M": 46,
    "D": 47,
    "I": 48,
    "j": 49,
    "E": 50,
    "P": 51,
    "G": 52,
    "K": 53,
    "V": 54,
    "F": 55,
    "N": 56,
    "J": 57,
    "U": 58,
    "H": 59,
    "2": 60,
    "0": 61,
    "4": 62,
    "5": 63,
    "Y": 64,
    "8": 65,
    "1": 66,
    "3": 67,
    ":": 68,
    "(": 69,
    ")": 70,
    "X": 71,
    "at": 72,
    "▁a": 73,
    "▁i": 74,
    "on": 75,
    "re": 76,
    "▁t": 77,
    "en": 78,
    "in": 79,
    "er": 80,
    "▁s": 81,
    "▁is": 82,
    "▁c": 83,
    "or": 84,
    "es": 85,
    "ion": 86,
    "hat": 87,
    "▁p": 88,
    "▁d": 89,
    "▁W": 90,
    "▁What": 91,
    "ing": 92,
    "▁an": 93,
    "ed": 94,
    "al": 95,
    "it": 96,
    "ent": 97,
    "ro": 98,
    "▁re": 99,
    "le": 100,
    "ct": 101,
    "he": 102,
    "an": 103,
    "▁o": 104,
    "▁b": 105,
    "ation": 106,
    "▁m": 107,
    "▁in": 108,
    "▁the": 109,
    "ic": 110,
    "▁to": 111,
    "▁f": 112,
    "▁A": 113,
    "▁co": 114,
    "ut": 115,
    "▁w": 116,
    "ar": 117,
    "▁and": 118,
    "▁pro": 119,
    "st": 120,
    "et": 121,
    "ce": 122,
    "mp": 123,
    "▁e": 124,
    "ra": 125,
    "▁or": 126,
    "▁con": 127,
    "▁u": 128,
    "▁l": 129,
    "▁of": 130,
    "de": 131,
    "il": 132,
    "ab": 133,
    "▁st": 134,
    "as": 135,
    "res": 136,
    "ur": 137,
    "if": 138,
    "▁v": 139,
    "▁n": 140,
    "ch": 141,
    "ly": 142,
    "▁comp": 143,
    "▁de": 144,
    "ity": 145,
    "ction": 146,
    "ces": 147,
    "▁ex": 148,
    "▁so": 149,
    "ul": 150,
    "▁wh": 151,
    "▁us": 152,
    "▁be": 153,
    "orm": 154,
    "qu": 155,
    "▁that": 156,
    "▁dat": 157,
    "ment": 158,
    "vi": 159,
    "ter": 160,
    "un": 161,
    "ect": 162,
    "iz": 163,
    "ec": 164,
    "lo": 165,
    "gra": 166,
    "im": 167,
    "▁mo": 168,
    "etw": 169,
    "em": 170,
    "ate": 171,
    "are": 172,
    "ge": 173,
    "ren": 174,
    "▁rep": 175,
    "ve": 176,
    "▁h": 177,
    "ts": 178,
    "ain": 179,
    "ith": 180,
    "ers": 181,
    "fe": 182,
    "ib": 183,
    "form": 184,
    "▁cont": 185,
    "cess": 186,
    "▁data": 187,
    "feren": 188,
    "ware": 189,
    "ig": 190,
    "ft": 191,
    "ck": 192,
    "ile": 193,
    "▁op": 194,
    "▁res": 195,
    "ftware": 196,
    "▁lo": 197,
    "est": 198,
    "▁on": 199,
    "▁as": 200,
    "▁software": 201,
    "end": 202,
    "een": 203,
    "▁val": 204,
    "her": 205,
    "▁betw": 206,
    "▁between": 207,
    "am": 208,
    "resent": 209,
    "ure": 210,
    "▁dif": 211,
    "able": 212,
    "us": 213,
    "gram": 214,
    "ility": 215,
    "is": 216,
    "▁sy": 217,
    "▁for": 218,
    "ken": 219,
    "▁represent": 220,
    "▁differen": 221,
    "age": 222,
    "▁while": 223,
    "▁token": 224,
    "▁by": 225,
    "ru": 226,
    "ist": 227,
    "del": 228,
    "put": 229,
    "▁ac": 230,
    "ations": 231,
    "▁al": 232,
    "ans": 233,
    "▁with": 234,
    "▁can": 235,
    "▁un": 236,
    "ated": 237,
    "red": 238,
    "▁program": 239,
    "▁model": 240,
    "▁se": 241,
    "ad": 242,
    "os": 243,
    "▁oper": 244,
    "du": 245,
    "ies": 246,
    "▁An": 247,
    "▁su": 248,
    "▁g": 249,
    "▁code": 250,
    "ition": 251,
    "ding": 252,
    "ical": 253,
    "ot": 254,
    "▁requ": 255,
    "stem": 256,
    "pp": 257,
    "▁inter": 258,
    "ver": 259,
    "▁system": 260,
    "ang": 261,
    "▁valu": 262,
    "um": 263,
    "▁par": 264,
    "▁int": 265,
    "▁difference": 266,
    "▁ch": 267,
    "enc": 268,
    "ication": 269,
    "unction": 270,
    "▁me": 271,
    "onent": 272,
    "▁tra": 273,
    "▁function": 274,
    "ization": 275,
    "▁r": 276,
    "▁component": 277,
    "id": 278,
    "ack": 279,
    "▁exec": 280,
    "▁execut": 281,
    "▁dep": 282,
    "ip": 283,
    "▁com": 284,
    "ha": 285,
    "ork": 286,
    "ability": 287,
    "▁T": 288,
    "om": 289,
    "▁le": 290,
    "▁des": 291,
    "rans": 292,
    "▁ma": 293,
    "▁process": 294,
    "ary": 295,
    "ive": 296,
    "ruct": 297,
    "rib": 298,
    "ol": 299,
    "▁sp": 300,
    "ates": 301,
    "▁per": 302,
    "▁at": 303,
    "ail": 304,
    "▁imp": 305,
    "▁used": 306,
    "ase": 307,
    "▁S": 308,
    "▁beha": 309,
    "▁ob": 310,
    "▁th": 311,
    "▁test": 312,
    "ject": 313,
    "▁input": 314,
    "vior": 315,
    "▁def": 316,
    "▁behavior": 317,
    "ex": 318,
    "▁app": 319,
    "erv": 320,
    "ult": 321,
    "ance": 322,
    "ines": 323,
    "oc": 324,
    "ient": 325,
    "▁its": 326,
    "ow": 327,
    "ory": 328,
    "ining": 329,
    "yp": 330,
    "▁spec": 331,
    "▁when": 332,
    "ime": 333,
    "rom": 334,
    "▁rel": 335,
    "▁C": 336,
    "ron": 337,
    "sion": 338,
    "our": 339,
    "▁trans": 340,
    "▁from": 341,
    "ine": 342,
    "ir": 343,
    "▁comm": 344,
    "low": 345,
    "ire": 346,
    "▁object": 347,
    "eter": 348,
    "ial": 349,
    "od": 350,
    "cur": 351,
    "▁perform": 352,
    "▁resour": 353,
    "▁D": 354,
    "ri": 355,
    "lement": 356,
    "▁cl": 357,
    "▁value": 358,
    "▁one": 359,
    "ign": 360,
    "▁pre": 361,
    "▁provi": 362,
    "▁aut": 363,
    "▁sc": 364,
    "and": 365,
    "▁exp": 366,
    "rol": 367,
    "ass": 368,
    "▁specif": 369,
    "▁depend": 370,
    "ort": 371,
    "▁att": 372,
    "▁num": 373,
    "▁state": 374,
    "▁struct": 375,
    "ant": 376,
    "ext": 377,
    "▁ad": 378,
    "▁mem": 379,
    "dition": 380,
    "▁comput": 381,
    "ay": 382,
    "▁it": 383,
    "ore": 384,
    "ention": 385,
    "cor": 386,
    "ency": 387,
    "▁ne": 388,
    "ther": 389,
    "ke": 390,
    "ug": 391,
    "all": 392,
    "▁gra": 393,
    "▁how": 394,
    "▁en": 395,
    "ener": 396,
    "▁appl": 397,
    "ures": 398,
    "formation": 399,
    "▁ev": 400,
    "▁R": 401,
    "▁ab": 402,
    "ersion": 403,
    "▁training": 404,
    "▁prob": 405,
    "▁access": 406,
    "▁into": 407,
    "▁man": 408,
    "▁sh": 409,
    "▁typ": 410,
    "▁gener": 411,
    "▁ro": 412,
    "etwork": 413,
    "▁control": 414,
    "▁network": 415,
    "▁serv": 416,
    "▁pat": 417,
    "▁memory": 418,
    "des": 419,
    "ss": 420,
    "ence": 421,
    "ach": 422,
    "▁sequ": 423,
    "der": 424,
    "▁chang": 425,
    "▁log": 426,
    "▁whe": 427,
    "▁sto": 428,
    "abase": 429,
    "out": 430,
    "ithm": 431,
    "▁produ": 432,
    "ard": 433,
    "▁contain": 434,
    "ual": 435,
    "gor": 436,
    "ag": 437,
    "ace": 438,
    "▁comple": 439,
    "tern": 440,
    "▁components": 441,
    "▁using": 442,
    "▁structure": 443,
    "gorithm": 444,
    "ess": 445,
    "stra": 446,
    "▁database": 447,
    "▁out": 448,
    "▁information": 449,
    "▁param": 450,
    "▁algorithm": 451,
    "igh": 452,
    "▁ar": 453,
    "▁qu": 454,
    "▁desc": 455,
    "ff": 456,
    "ctions": 457,
    "pon": 458,
    "▁servic": 459,
    "▁ass": 460,
    "ous": 461,
    "▁cor": 462,
    "▁are": 463,
    "▁such": 464,
    "▁condition": 465,
    "▁col": 466,
    "▁testing": 467,
    "▁programm": 468,
    "▁cons": 469,
    "▁I": 470,
    "▁changes": 471,
    "▁allow": 472,
    "arn": 473,
    "▁execution": 474,
    "▁operations": 475,
    "angu": 476,
    "▁we": 477,
    "ating": 478,
    "▁langu": 479,
    "iple": 480,
    "▁P": 481,
    "▁attention": 482,
    "uring": 483,
    "▁mult": 484,
    "▁interf": 485,
    "▁he": 486,
    "▁tokens": 487,
    "▁programming": 488,
    "ied": 489,
    "▁time": 490,
    "ribut": 491,
    "▁during": 492,
    "ugh": 493,
    "▁learn": 494,
    "▁describ": 495,
    "▁language": 496,
    "ap": 497,
    "▁implement": 498,
    "int": 499,
    "▁operation": 500,
    "ert": 501,
    "▁provides": 502,
    "act": 503,
    "te": 504,
    "▁respon": 505,
    "ined": 506,
    "▁values": 507,
    "▁ke": 508,
    "ds": 509,
    "up": 510,
    "▁version": 511,
    "▁po": 512,
    "▁sequence": 513,
    "▁opt": 514,
    "▁representation": 515,
    "▁application": 516,
    "osition": 517,
    "ph": 518,
    "▁oc": 519,
    "dent": 520,
    "▁occur": 521,
    "rough": 522,
    "▁ident": 523,
    "aint": 524,
    "▁resources": 525,
    "▁anot": 526,
    "▁another": 527,
    "eterm": 528,
    "▁met": 529,
    "ress": 530,
    "▁inst": 531,
    "▁M": 532,
    "▁class": 533,
    "▁through": 534,
    "mpl": 535,
    "redi": 536,
    "fore": 537,
    "▁valid": 538,
    "▁dist": 539,
    "▁respons": 540,
    "▁mod": 541,
    "▁output": 542,
    "▁part": 543,
    "▁key": 544,
    "ected": 545,
    "▁before": 546,
    "ror": 547,
    "rect": 548,
    "▁other": 549,
    "ep": 550,
    "iv": 551,
    "viron": 552,
    "vironment": 553,
    "▁multiple": 554,
    "▁maint": 555,
    "▁predi": 556,
    "▁describes": 557,
    "ize": 558,
    "▁environment": 559,
    "▁interface": 560,
    "ens": 561,
    "▁defines": 562,
    "▁te": 563,
    "lem": 564,
    "▁er": 565,
    "▁error": 566,
    "▁fail": 567,
    "ality": 568,
    "▁rem": 569,
    "▁whic": 570,
    "▁which": 571,
    "▁back": 572,
    "▁numer": 573,
    "vail": 574,
    "▁optim": 575,
    "eg": 576,
    "▁consist": 577,
    "its": 578,
    "▁without": 579,
    "▁inc": 580,
    "▁sub": 581,
    "▁sour": 582,
    "▁run": 583,
    "▁use": 584,
    "yn": 585,
    "▁means": 586,
    "get": 587,
    "▁over": 588,
    "▁source": 589,
    "ired": 590,
    "ward": 591,
    "▁represents": 592,
    "▁design": 593,
    "▁where": 594,
    "▁problem": 595,
    "▁numerical": 596,
    "▁ent": 597,
    "▁occurs": 598,
    "▁under": 599,
    "velo": 600,
    "velop": 601,
    "▁pattern": 602,
    "▁H": 603,
    "atch": 604,
    "▁has": 605,
    "▁different": 606,
    "ose": 607,
    "▁develop": 608,
    "▁dependency": 609,
    "▁service": 610,
    "ange": 611,
    "▁B": 612,
    "▁conn": 613,
    "▁determ": 614,
    "▁correct": 615,
    "▁allows": 616,
    "▁implementation": 617,
    "▁lay": 618,
    "lection": 619,
    "th": 620,
    "ormal": 621,
    "▁AP": 622,
    "▁API": 623,
    "▁distribut": 624,
    "▁fe": 625,
    "ask": 626,
    "cts": 627,
    "irect": 628,
    "ful": 629,
    "▁work": 630,
    "cep": 631,
    "ible": 632,
    "ross": 633,
    "op": 634,
    "und": 635,
    "▁set": 636,
    "ampl": 637,
    "ular": 638,
    "▁The": 639,
    "▁auth": 640,
    "▁type": 641,
    "inu": 642,
    "▁add": 643,
    "▁L": 644,
    "▁prop": 645,
    "▁modif": 646,
    "dient": 647,
    "ced": 648,
    "▁each": 649,
    "ism": 650,
    "aus": 651,
    "hod": 652,
    "▁identif": 653,
    "▁event": 654,
    "ibility": 655,
    "▁position": 656,
    "▁integ": 657,
    "▁numb": 658,
    "▁ret": 659,
    "▁accor": 660,
    "▁according": 661,
    "▁request": 662,
    "▁avail": 663,
    "cks": 664,
    "▁autom": 665,
    "▁meas": 666,
    "ection": 667,
    "▁loc": 668,
    "ally": 669,
    "ically": 670,
    "▁inde": 671,
    "hip": 672,
    "▁complex": 673,
    "▁eff": 674,
    "▁che": 675,
    "▁commun": 676,
    "ference": 677,
    "▁bu": 678,
    "ame": 679,
    "▁collection": 680,
    "ized": 681,
    "▁di": 682,
    "ules": 683,
    "▁E": 684,
    "▁cre": 685,
    "▁rele": 686,
    "▁repe": 687,
    "▁resource": 688,
    "▁method": 689,
    "▁abstra": 690,
    "loy": 691,
    "eters": 692,
    "▁gradient": 693,
    "omain": 694,
    "fter": 695,
    "▁dec": 696,
    "▁graph": 697,
    "▁relations": 698,
    "▁relationship": 699,
    "▁common": 700,
    "▁direct": 701,
    "▁required": 702,
    "▁conf": 703,
    "▁dis": 704,
    "▁after": 705,
    "ative": 706,
    "mb": 707,
    "el": 708,
    "▁size": 709,
    "▁not": 710,
    "▁redu": 711,
    "▁enc": 712,
    "lic": 713,
    "▁recor": 714,
    "▁HT": 715,
    "ests": 716,
    "▁client": 717,
    "▁parameters": 718,
    "vel": 719,
    "▁call": 720,
    "▁continu": 721,
    "▁sm": 722,
    "ities": 723,
    "▁uses": 724,
    "cept": 725,
    "▁impro": 726,
    "▁HTT": 727,
    "▁HTTP": 728,
    "▁context": 729,
    "▁deploy": 730,
    "▁defined": 731,
    "alu": 732,
    "ling": 733,
    "gan": 734,
    "▁computation": 735,
    "ves": 736,
    "▁functionality": 737,
    "▁prot": 738,
    "▁weigh": 739,
    "▁level": 740,
    "▁domain": 741,
    "ari": 742,
    "▁number": 743,
    "▁act": 744,
    "ree": 745,
    "▁organ": 746,
    "▁complexity": 747,
    "ential": 748,
    "▁compil": 749,
    "time": 750,
    "▁rules": 751,
    "▁det": 752,
    "ages": 753,
    "▁G": 754,
    "▁buil": 755,
    "▁sec": 756,
    "ression": 757,
    "▁evalu": 758,
    "▁up": 759,
    "▁inputs": 760,
    "▁mach": 761,
    "▁caus": 762,
    "▁ind": 763,
    "very": 764,
    "▁pack": 765,
    "▁measures": 766,
    "▁performance": 767,
    "▁layer": 768,
    "ural": 769,
    "▁specific": 770,
    "▁element": 771,
    "▁fin": 772,
    "▁require": 773,
    "li": 774,
    "▁Co": 775,
    "▁inv": 776,
    "▁manage": 777,
    "▁loss": 778,
    "arget": 779,
    "▁role": 780,
    "▁anal": 781,
    "▁analy": 782,
    "▁stor": 783,
    "▁change": 784,
    "▁parameter": 785,
    "▁sele": 786,
    "▁repeated": 787,
    "▁upd": 788,
    "▁same": 789,
    "ite": 790,
    "▁requirement": 791,
    "▁O": 792,
    "▁development": 793,
    "uld": 794,
    "▁arch": 795,
    "itect": 796,
    "▁scal": 797,
    "▁fi": 798,
    "▁target": 799,
    "ting": 800,
    "▁text": 801,
    "▁comb": 802,
    "ains": 803,
    "▁mean": 804,
    "▁form": 805,
    "▁runtime": 806,
    "▁architect": 807,
    "▁transform": 808,
    "ector": 809,
    "idd": 810,
    "atic": 811,
    "▁their": 812,
    "ax": 813,
    "▁contains": 814,
    "▁normal": 815,
    "ibr": 816,
    "ery": 817,
    "▁pr": 818,
    "▁conv": 819,
    "▁pass": 820,
    "▁deployment": 821,
    "▁vector": 822,
    "▁assoc": 823,
    "▁associ": 824,
    "▁sol": 825,
    "ynam": 826,
    "ust": 827,
    "struct": 828,
    "▁syn": 829,
    "▁integr": 830,
    "▁address": 831,
    "par": 832,
    "po": 833,
    "ently": 834,
    "▁Trans": 835,
    "▁Transform": 836,
    "▁Transformer": 837,
    "▁compat": 838,
    "▁whether": 839,
    "▁stored": 840,
    "▁machine": 841,
    "▁hand": 842,
    "▁libr": 843,
    "amples": 844,
    "▁systems": 845,
    "▁records": 846,
    "ects": 847,
    "co": 848,
    "▁learning": 849,
    "izer": 850,
    "▁than": 851,
    "ord": 852,
    "▁specified": 853,
    "▁small": 854,
    "ak": 855,
    "izes": 856,
    "▁examples": 857,
    "ew": 858,
    "▁management": 859,
    "ns": 860,
    "▁ser": 861,
    "ature": 862,
    "ument": 863,
    "ases": 864,
    "▁available": 865,
    "▁In": 866,
    "▁checks": 867,
    "▁end": 868,
    "ould": 869,
    "▁F": 870,
    "▁optimization": 871,
    "▁forward": 872,
    "▁mess": 873,
    "▁across": 874,
    "▁do": 875,
    "chn": 876,
    "▁Con": 877,
    "ution": 878,
    "emant": 879,
    "emantic": 880,
    "ract": 881,
    "▁indep": 882,
    "▁independ": 883,
    "▁related": 884,
    "▁should": 885,
    "ilities": 886,
    "▁authent": 887,
    "▁constra": 888,
    "ily": 889,
    "▁users": 890,
    "▁probability": 891,
    "ension": 892,
    "▁representations": 893,
    "▁new": 894,
    "▁validation": 895,
    "▁config": 896,
    "▁head": 897,
    "▁stores": 898,
    "arch": 899,
    "▁commonly": 900,
    "▁unit": 901,
    "led": 902,
    "ted": 903,
    "▁communication": 904,
    "▁requests": 905,
    "chron": 906,
    "▁generation": 907,
    "uration": 908,
    "▁analys": 909,
    "▁analysis": 910,
    "▁more": 911,
    "▁reus": 912,
    "inary": 913,
    "▁incre": 914,
    "▁propert": 915,
    "▁partic": 916,
    "vent": 917,
    "▁bas": 918,
    "urity": 919,
    "▁fix": 920,
    "▁batch": 921,
    "imension": 922,
    "ness": 923,
    "ac": 924,
    "▁nam": 925,
    "▁storage": 926,
    "▁loop": 927,
    "▁pl": 928,
    "ices": 929,
    "▁conver": 930,
    "▁gro": 931,
    "▁read": 932,
    "▁may": 933,
    "▁conditions": 934,
    "▁architecture": 935,
    "ints": 936,
    "▁file": 937,
    "▁user": 938,
    "istic": 939,
    "▁rat": 940,
    "▁rather": 941,
    "▁blo": 942,
    "▁task": 943,
    "▁path": 944,
    "▁tree": 945,
    "ynamic": 946,
    "▁them": 947,
    "ten": 948,
    "▁logic": 949,
    "▁exist": 950,
    "▁particular": 951,
    "▁N": 952,
    "▁non": 953,
    "▁U": 954,
    "riv": 955,
    "▁security": 956,
    "▁assign": 957,
    "▁voc": 958,
    "▁vocab": 959,
    "▁vocabul": 960,
    "▁vocabulary": 961,
    "▁vari": 962,
    "▁tru": 963,
    "les": 964,
    "▁associated": 965,
    "ast": 966,
    "▁order": 967,
    "▁relationships": 968,
    "▁divi": 969,
    "icient": 970,
    "edi": 971,
    "▁directly": 972,
    "▁format": 973,
    "▁mech": 974,
    "▁mechan": 975,
    "▁mechanism": 976,
    "▁objects": 977,
    "▁rest": 978,
    "ler": 979,
    "▁query": 980,
    "action": 981,
    "▁St": 982,
    "ide": 983,
    "aset": 984,
    "mbed": 985,
    "▁dimension": 986,
    "encies": 987,
    "▁build": 988,
    "ended": 989,
    "▁point": 990,
    "▁elements": 991,
    "ws": 992,
    "ound": 993,
    "medi": 994,
    "▁ver": 995,
    "▁verif": 996,
    "▁intern": 997,
    "ub": 998,
    "▁library": 999,
    "▁connection": 1000,
    "▁services": 1001,
    "▁lim": 1002,
    "rop": 1003,
    "▁improve": 1004,
    "dual": 1005,
    "▁controls": 1006,
    "▁indic": 1007,
    "▁ag": 1008,
    "▁produces": 1009,
    "▁complete": 1010,
    "▁result": 1011,
    "▁techn": 1012,
    "ved": 1013,
    "ue": 1014,
    "▁binary": 1015,
    "▁search": 1016,
    "▁requirements": 1017,
    "▁underst": 1018,
    "▁expected": 1019,
    "▁share": 1020,
    "▁only": 1021,
    "ull": 1022,
    "▁mainten": 1023,
    "▁maintenance": 1024,
    "▁maintain": 1025,
    "rent": 1026,
    "arily": 1027,
    "▁inference": 1028,
    "ision": 1029,
    "▁dataset": 1030,
    "mbedding": 1031,
    "ensor": 1032,
    "▁dependencies": 1033,
    "▁performs": 1034,
    "▁repeatedly": 1035,
    "ong": 1036,
    "▁converts": 1037,
    "▁previ": 1038,
    "▁previous": 1039,
    "mediate": 1040,
    "▁isol": 1041,
    "▁abstraction": 1042,
    "▁doc": 1043,
    "▁extern": 1044,
    "▁fil": 1045,
    "▁separ": 1046,
    "▁normalization": 1047,
    "▁Dat": 1048,
    "▁ability": 1049,
    "▁processes": 1050,
    "▁mat": 1051,
    "▁representing": 1052,
    "▁distribution": 1053,
    "▁configuration": 1054,
    "idden": 1055,
    "▁response": 1056,
    "▁k": 1057,
    "ually": 1058,
    "▁instru": 1059,
    "▁sat": 1060,
    "ier": 1061,
    "▁internal": 1062,
    "herit": 1063,
    "▁need": 1064,
    "▁existing": 1065,
    "atically": 1066,
    "▁prevent": 1067,
    "▁consistency": 1068,
    "tion": 1069,
    "▁obs": 1070,
    "▁transforms": 1071,
    "hem": 1072,
    "▁learned": 1073,
    "▁min": 1074,
    "▁mask": 1075,
    "ning": 1076,
    "▁load": 1077,
    "▁true": 1078,
    "ator": 1079,
    "▁supp": 1080,
    "▁stack": 1081,
    "▁lin": 1082,
    "▁hash": 1083,
    "▁prec": 1084,
    "▁reg": 1085,
    "ving": 1086,
    "▁efficient": 1087,
    "▁synt": 1088,
    "▁semantic": 1089,
    "▁types": 1090,
    "▁document": 1091,
    "▁external": 1092,
    "ran": 1093,
    "▁conc": 1094,
    "read": 1095,
    "▁based": 1096,
    "▁many": 1097,
    "▁cap": 1098,
    "▁gradients": 1099,
    "▁neural": 1100,
    "▁compatibility": 1101,
    "▁embedding": 1102,
    "▁tensor": 1103,
    "com": 1104,
    "▁bound": 1105,
    "▁containing": 1106,
    "▁fra": 1107,
    "se": 1108,
    "▁block": 1109,
    "▁iter": 1110,
    "▁satis": 1111,
    "▁satisf": 1112,
    "ialization": 1113,
    "ps": 1114,
    "▁remo": 1115,
    "▁fir": 1116,
    "▁first": 1117,
    "▁determines": 1118,
    "▁correctly": 1119,
    "▁detail": 1120,
    "▁provide": 1121,
    "▁V": 1122,
    "▁within": 1123,
    "▁colum": 1124,
    "▁prim": 1125,
    "▁reduce": 1126,
    "ocol": 1127,
    "ice": 1128,
    "▁sim": 1129,
    "▁operating": 1130,
    "mm": 1131,
    "load": 1132,
    "ores": 1133,
    "▁positions": 1134,
    "▁low": 1135,
    "▁high": 1136,
    "▁sa": 1137,
    "▁enco": 1138,
    "osit": 1139,
    "▁selects": 1140,
    "▁que": 1141,
    "▁link": 1142,
    "ges": 1143,
    "▁lar": 1144,
    "▁vert": 1145,
    "▁table": 1146,
    "▁step": 1147,
    "▁usage": 1148,
    "rit": 1149,
    "cted": 1150,
    "▁execute": 1151,
    "cation": 1152,
    "▁independent": 1153,
    "▁distributed": 1154,
    "aces": 1155,
    "ational": 1156,
    "ura": 1157,
    "▁protocol": 1158,
    "▁clients": 1159,
    "back": 1160,
    "chronous": 1161,
    "▁processed": 1162,
    "▁import": 1163,
    "▁outputs": 1164,
    "▁temp": 1165,
    "▁release": 1166,
    "▁stat": 1167,
    "▁ha": 1168,
    "▁inf": 1169,
    "▁variable": 1170,
    "▁intended": 1171,
    "ingle": 1172,
    "ables": 1173,
    "ll": 1174,
    "▁remains": 1175,
    "▁recur": 1176,
    "ise": 1177,
    "▁does": 1178,
    "▁line": 1179,
    "▁solution": 1180,
    "▁intermediate": 1181,
    "irt": 1182,
    "irtual": 1183,
    "rong": 1184,
    "ging": 1185,
    "rodu": 1186,
    "▁failure": 1187,
    "heritance": 1188,
    "▁files": 1189,
    "ranch": 1190,
    "▁transaction": 1191,
    "▁reli": 1192,
    "▁server": 1193,
    "▁structured": 1194,
    "▁hel": 1195,
    "▁constraints": 1196,
    "▁ID": 1197,
    "hy": 1198,
    "▁hidden": 1199,
    "▁generally": 1200,
    "ric": 1201,
    "ner": 1202,
    "rip": 1203,
    "▁location": 1204,
    "▁what": 1205,
    "▁represented": 1206,
    "▁designed": 1207,
    "▁retur": 1208,
    "▁queue": 1209,
    "▁no": 1210,
    "▁ed": 1211,
    "ately": 1212,
    "▁problems": 1213,
    "▁compiler": 1214,
    "▁often": 1215,
    "▁meaning": 1216,
    "lu": 1217,
    "▁controlled": 1218,
    "▁details": 1219,
    "▁allo": 1220,
    "▁automatically": 1221,
    "▁package": 1222,
    "▁branch": 1223,
    "▁combines": 1224,
    "▁understand": 1225,
    "cy": 1226,
    "ryp": 1227,
    "gress": 1228,
    "▁processing": 1229,
    "▁produce": 1230,
    "▁lat": 1231,
    "▁author": 1232,
    "▁patterns": 1233,
    "▁predictions": 1234,
    "▁feed": 1235,
    "▁whose": 1236,
    "inistic": 1237,
    "tra": 1238,
    "▁failures": 1239,
    "▁entity": 1240,
    "▁str": 1241,
    "aract": 1242,
    "▁expression": 1243,
    "▁executes": 1244,
    "▁case": 1245,
    "▁accessed": 1246,
    "▁dynamic": 1247,
    "▁syntax": 1248,
    "erm": 1249,
    "cking": 1250,
    "▁property": 1251,
    "▁modu": 1252,
    "▁module": 1253,
    "oring": 1254,
    "ead": 1255,
    "▁rout": 1256,
    "▁authentication": 1257,
    "ying": 1258,
    "▁fixed": 1259,
    "gth": 1260,
    "▁optimizer": 1261,
    "▁minim": 1262,
    "▁weights": 1263,
    "adding": 1264,
    "▁weight": 1265,
    "rix": 1266,
    "idual": 1267,
    "LU": 1268,
    "▁causal": 1269,
    "▁computational": 1270,
    "▁continue": 1271,
    "▁message": 1272,
    "ications": 1273,
    "▁charact": 1274,
    "▁reusable": 1275,
    "▁produced": 1276,
    "▁increases": 1277,
    "▁toget": 1278,
    "▁together": 1279,
    "▁construct": 1280,
    "ood": 1281,
    "▁resul": 1282,
    "▁results": 1283,
    "pre": 1284,
    "▁instructions": 1285,
    "▁virtual": 1286,
    "▁must": 1287,
    "▁executing": 1288,
    "▁term": 1289,
    "icate": 1290,
    "▁shared": 1291,
    "▁created": 1292,
    "▁cle": 1293,
    "▁project": 1294,
    "ository": 1295,
    "▁responsib": 1296,
    "▁responsibilities": 1297,
    "▁Cont": 1298,
    "▁So": 1299,
    "▁stand": 1300,
    "▁updates": 1301,
    "▁activ": 1302,
    "▁len": 1303,
    "▁length": 1304,
    "▁fram": 1305,
    "lying": 1306,
    "▁matrix": 1307,
    "▁scaling": 1308,
    "jection": 1309,
    "▁Why": 1310,
    "oss": 1311,
    "▁indicates": 1312,
    "▁versioning": 1313,
    "▁perm": 1314,
    "▁adap": 1315,
    "▁single": 1316,
    "word": 1317,
    "▁statement": 1318,
    "▁rece": 1319,
    "▁evaluates": 1320,
    "▁orde": 1321,
    "▁ordered": 1322,
    "▁determine": 1323,
    "▁sort": 1324,
    "ks": 1325,
    "pping": 1326,
    "▁those": 1327,
    "▁interpre": 1328,
    "▁programs": 1329,
    "▁unex": 1330,
    "▁unexp": 1331,
    "▁organizes": 1332,
    "▁poly": 1333,
    "▁contract": 1334,
    "▁special": 1335,
    "▁way": 1336,
    "▁useful": 1337,
    "▁repository": 1338,
    "▁technical": 1339,
    "rete": 1340,
    "▁retri": 1341,
    "▁retrie": 1342,
    "▁relational": 1343,
    "▁columns": 1344,
    "▁integrity": 1345,
    "▁standard": 1346,
    "licit": 1347,
    "▁conversion": 1348,
    "▁functions": 1349,
    "utable": 1350,
    "ynchronous": 1351,
    "ively": 1352,
    "ences": 1353,
    "▁scores": 1354,
    "▁tokenizer": 1355,
    "▁next": 1356,
    "ampling": 1357,
    "▁port": 1358,
    "point": 1359,
    "▁backward": 1360,
    "▁Data": 1361,
    "▁schem": 1362,
    "▁Code": 1363,
    "▁they": 1364,
    "▁sign": 1365,
    "flow": 1366,
    "rastruct": 1367,
    "rastructure": 1368,
    "▁tw": 1369,
    "▁two": 1370,
    "▁logical": 1371,
    "▁usually": 1372,
    "ination": 1373,
    "▁update": 1374,
    "▁long": 1375,
    "air": 1376,
    "xim": 1377,
    "less": 1378,
    "cing": 1379,
    "round": 1380,
    "▁readable": 1381,
    "▁computer": 1382,
    "▁deb": 1383,
    "ration": 1384,
    "▁inheritance": 1385,
    "cessary": 1386,
    "▁needed": 1387,
    "▁mak": 1388,
    "ception": 1389,
    "▁group": 1390,
    "ols": 1391,
    "▁ref": 1392,
    "▁instead": 1393,
    "▁general": 1394,
    "▁maj": 1395,
    "▁major": 1396,
    "QL": 1397,
    "▁Comp": 1398,
    "▁computing": 1399,
    "▁identify": 1400,
    "▁deli": 1401,
    "▁concur": 1402,
    "▁tasks": 1403,
    "▁pres": 1404,
    "▁observ": 1405,
    "▁driv": 1406,
    "▁driven": 1407,
    "max": 1408,
    "▁reco": 1409,
    "▁est": 1410,
    "ives": 1411,
    "▁residual": 1412,
    "▁sampling": 1413,
    "now": 1414,
    "pose": 1415,
    "▁command": 1416,
    "▁executable": 1417,
    "▁Dep": 1418,
    "▁convention": 1419,
    "▁status": 1420,
    "▁availability": 1421,
    "▁web": 1422,
    "▁art": 1423,
    "▁artif": 1424,
    "▁local": 1425,
    "▁pers": 1426,
    "ry": 1427,
    "ession": 1428,
    "▁feature": 1429,
    "▁bit": 1430,
    "▁calls": 1431,
    "▁return": 1432,
    "▁appro": 1433,
    "▁mer": 1434,
    "▁around": 1435,
    "▁executed": 1436,
    "▁expos": 1437,
    "▁reference": 1438,
    "atform": 1439,
    "▁versions": 1440,
    "▁cann": 1441,
    "▁cannot": 1442,
    "▁revi": 1443,
    "▁review": 1444,
    "▁fut": 1445,
    "▁future": 1446,
    "ondition": 1447,
    "▁gu": 1448,
    "ight": 1449,
    "alle": 1450,
    "allel": 1451,
    "▁wa": 1452,
    "▁abstract": 1453,
    "▁typing": 1454,
    "▁quality": 1455,
    "▁sequences": 1456,
    "gn": 1457,
    "▁transformation": 1458,
    "abilities": 1459,
    "▁train": 1460,
    "▁schema": 1461,
    "▁tempor": 1462,
    "▁vul": 1463,
    "▁vulner": 1464,
    "ault": 1465,
    "▁accept": 1466,
    "▁artifact": 1467,
    "▁bro": 1468,
    "oder": 1469,
    "stant": 1470,
    "ole": 1471,
    "▁real": 1472,
    "que": 1473,
    "▁index": 1474,
    "▁ordering": 1475,
    "▁keys": 1476,
    "▁divides": 1477,
    "▁selected": 1478,
    "▁transl": 1479,
    "▁unexpected": 1480,
    "▁integration": 1481,
    "aps": 1482,
    "▁En": 1483,
    "▁identifies": 1484,
    "▁detect": 1485,
    "▁platform": 1486,
    "▁classes": 1487,
    "▁Software": 1488,
    "▁interfaces": 1489,
    "▁modification": 1490,
    "▁isolation": 1491,
    "▁structures": 1492,
    "▁dev": 1493,
    "▁delivery": 1494,
    "▁send": 1495,
    "▁thread": 1496,
    "ordin": 1497,
    "▁functional": 1498,
    "▁si": 1499,
    "▁events": 1500,
    "▁Aut": 1501,
    "▁limit": 1502,
    "▁important": 1503,
    "ections": 1504,
    "ftmax": 1505,
    "▁generated": 1506,
    "▁padding": 1507,
    "▁large": 1508,
    "▁final": 1509,
    "▁poss": 1510,
    "atures": 1511,
    "▁simil": 1512,
    "▁similar": 1513,
    "▁prediction": 1514,
    "▁disco": 1515,
    "▁cur": 1516,
    "▁pur": 1517,
    "▁becom": 1518,
    "fer": 1519,
    "lication": 1520,
    "▁specification": 1521,
    "usines": 1522,
    "usiness": 1523,
    "actions": 1524,
    "yc": 1525,
    "▁consistent": 1526,
    "▁session": 1527,
    "▁scrip": 1528,
    "▁infrastructure": 1529,
    "▁messages": 1530,
    "▁interact": 1531,
    "▁rol": 1532,
    "▁named": 1533,
    "▁integer": 1534,
    "▁symb": 1535,
    "▁dig": 1536,
    "▁operator": 1537,
    "▁init": 1538,
    "elf": 1539,
    "▁pair": 1540,
    "mo": 1541,
    "▁parts": 1542,
    "ivi": 1543,
    "▁efficiently": 1544,
    "▁processor": 1545,
    "▁hard": 1546,
    "ccess": 1547,
    "▁but": 1548,
    "▁errors": 1549,
    "▁communicate": 1550,
    "ulation": 1551,
    "▁restri": 1552,
    "▁pub": 1553,
    "▁unn": 1554,
    "▁reach": 1555,
    "▁requir": 1556,
    "▁requiring": 1557,
    "▁every": 1558,
    "aries": 1559,
    "▁documentation": 1560,
    "ded": 1561,
    "▁Te": 1562,
    "▁Mo": 1563,
    "▁Model": 1564,
    "▁clo": 1565,
    "▁coordin": 1566,
    "▁concurrent": 1567,
    "▁ra": 1568,
    "▁about": 1569,
    "▁limits": 1570,
    "ering": 1571,
    "ish": 1572,
    "▁identity": 1573,
    "▁authorization": 1574,
    "andom": 1575,
    "▁decision": 1576,
    "▁reduces": 1577,
    "line": 1578,
    "▁disc": 1579,
    "PE": 1580,
    "▁adds": 1581,
    "▁predict": 1582,
    "oregress": 1583,
    "agation": 1584,
    "Norm": 1585,
    "▁Ro": 1586,
    "▁top": 1587,
    "▁possible": 1588,
    "▁all": 1589,
    "vant": 1590,
    "mple": 1591,
    "▁boundary": 1592,
    "▁bits": 1593,
    "PU": 1594,
    "▁continuous": 1595,
    "▁metric": 1596,
    "▁tests": 1597,
    "▁developers": 1598,
    "itted": 1599,
    "▁concer": 1600,
    "▁concerns": 1601,
    "▁states": 1602,
    "▁have": 1603,
    "sed": 1604,
    "▁dup": 1605,
    "alid": 1606,
    "▁applications": 1607,
    "▁cop": 1608,
    "ud": 1609,
    "▁compatible": 1610,
    "▁pot": 1611,
    "▁potential": 1612,
    "▁entire": 1613,
    "iddle": 1614,
    "iddleware": 1615,
    "▁shif": 1616,
    "▁evaluation": 1617,
    "▁remain": 1618,
    "▁z": 1619,
    "ique": 1620,
    "▁referen": 1621,
    "▁vertices": 1622,
    "▁finite": 1623,
    "▁space": 1624,
    "▁rate": 1625,
    "unt": 1626,
    "▁Lo": 1627,
    "▁exam": 1628,
    "reed": 1629,
    "▁cho": 1630,
    "▁writ": 1631,
    "▁support": 1632,
    "▁gram": 1633,
    "▁gramm": 1634,
    "▁vi": 1635,
    "ccessful": 1636,
    "▁debug": 1637,
    "▁properties": 1638,
    "mor": 1639,
    "morph": 1640,
    "morphism": 1641,
    "▁tre": 1642,
    "▁som": 1643,
    "▁attribut": 1644,
    "ias": 1645,
    "▁allocation": 1646,
    "▁leak": 1647,
    "▁exception": 1648,
    "▁manag": 1649,
    "▁create": 1650,
    "▁tables": 1651,
    "▁rows": 1652,
    "▁li": 1653,
    "▁like": 1654,
    "▁exch": 1655,
    "▁IP": 1656,
    "▁identifier": 1657,
    "ission": 1658,
    "▁peri": 1659,
    "▁period": 1660,
    "▁parallel": 1661,
    "▁ow": 1662,
    "▁uns": 1663,
    "▁primarily": 1664,
    "▁strong": 1665,
    "▁imm": 1666,
    "▁applies": 1667,
    "▁prin": 1668,
    "▁princ": 1669,
    "▁specifies": 1670,
    "▁reliability": 1671,
    "▁consistently": 1672,
    "▁maintainability": 1673,
    "icated": 1674,
    "▁epo": 1675,
    "▁epoch": 1676,
    "▁subs": 1677,
    "▁activation": 1678,
    "▁discrete": 1679,
    "▁IDs": 1680,
    "▁fre": 1681,
    "▁frequ": 1682,
    "▁estim": 1683,
    "oregressive": 1684,
    "▁framew": 1685,
    "▁framework": 1686,
    "▁networks": 1687,
    "▁root": 1688,
    "▁assigns": 1689,
    "▁connections": 1690,
    "ream": 1691,
    "▁current": 1692,
    "▁explo": 1693,
    "▁ext": 1694,
    "▁purpose": 1695,
    "▁pract": 1696,
    "▁correctness": 1697,
    "▁foc": 1698,
    "▁focus": 1699,
    "▁interactions": 1700,
    "▁resol": 1701,
    "ie": 1702,
    "▁heap": 1703,
    "▁persist": 1704,
    "vers": 1705,
    "▁adapt": 1706,
    "▁container": 1707,
    "log": 1708,
    "▁allowing": 1709,
    "▁dia": 1710,
    "▁diagram": 1711,
    "▁packet": 1712,
    "▁performed": 1713,
    "ero": 1714,
    "loating": 1715,
    "▁smaller": 1716,
    "▁squ": 1717,
    "▁square": 1718,
    "▁unt": 1719,
    "reedy": 1720,
    "▁interpreter": 1721,
    "▁hardware": 1722,
    "▁successful": 1723,
    "▁satisfies": 1724,
    "▁verifies": 1725,
    "▁public": 1726,
    "ides": 1727,
    "▁lif": 1728,
    "▁operate": 1729,
    "▁null": 1730,
    "▁handling": 1731,
    "▁requi": 1732,
    "▁requires": 1733,
    "hes": 1734,
    "▁invari": 1735,
    "▁post": 1736,
    "▁addition": 1737,
    "▁J": 1738,
    "▁TC": 1739,
    "▁TCP": 1740,
    "▁protected": 1741,
    "▁preserv": 1742,
    "▁check": 1743,
    "▁compilation": 1744,
    "▁composition": 1745,
    "▁side": 1746,
    "▁effect": 1747,
    "▁asynchronous": 1748,
    "▁constraint": 1749,
    "▁workload": 1750,
    "▁authenticated": 1751,
    "▁random": 1752,
    "fit": 1753,
    "▁layers": 1754,
    "▁sel": 1755,
    "▁self": 1756,
    "▁assigned": 1757,
    "▁logits": 1758,
    "▁cross": 1759,
    "▁computes": 1760,
    "▁vectors": 1761,
    "▁independently": 1762,
    "▁deterministic": 1763,
    "▁features": 1764,
    "▁relevant": 1765,
    "ayer": 1766,
    "▁content": 1767,
    "▁precision": 1768,
    "▁environments": 1769,
    "▁cost": 1770,
    "▁principle": 1771,
    "▁pri": 1772,
    "▁business": 1773,
    "tal": 1774,
    "▁injection": 1775,
    "▁tr": 1776,
    "ute": 1777,
    "▁defects": 1778,
    "▁inclu": 1779,
    "▁overflow": 1780,
    "▁lex": 1781,
    "▁explicit": 1782,
    "▁priv": 1783,
    "▁corres": 1784,
    "▁correspon": 1785,
    "▁maintains": 1786,
    "▁backup": 1787,
    "ok": 1788,
    "▁bug": 1789,
    "▁again": 1790,
    "▁mig": 1791,
    "▁migration": 1792,
    "per": 1793,
    "gre": 1794,
    "greg": 1795,
    "▁modeling": 1796,
    "▁encoding": 1797,
    "▁been": 1798,
    "▁zero": 1799,
    "▁string": 1800,
    "▁arg": 1801,
    "▁depending": 1802,
    "▁iteration": 1803,
    "▁ru": 1804,
    "▁rule": 1805,
    "ances": 1806,
    "▁recurs": 1807,
    "▁arra": 1808,
    "▁array": 1809,
    "▁list": 1810,
    "▁added": 1811,
    "odes": 1812,
    "▁edges": 1813,
    "▁most": 1814,
    "ger": 1815,
    "▁Dynamic": 1816,
    "▁previously": 1817,
    "▁computed": 1818,
    "▁hum": 1819,
    "ode": 1820,
    "▁termin": 1821,
    "▁incor": 1822,
    "▁De": 1823,
    "▁isolated": 1824,
    "▁regression": 1825,
    "▁unne": 1826,
    "▁dest": 1827,
    "▁una": 1828,
    "▁meaningful": 1829,
    "▁tools": 1830,
    "▁Re": 1831,
    "▁SQL": 1832,
    "▁modify": 1833,
    "▁transp": 1834,
    "ryption": 1835,
    "ST": 1836,
    "▁serialization": 1837,
    "▁static": 1838,
    "▁immutable": 1839,
    "▁later": 1840,
    "▁Gra": 1841,
    "fitting": 1842,
    "▁softmax": 1843,
    "ense": 1844,
    "▁autoregressive": 1845,
    "▁predicts": 1846,
    "▁well": 1847,
    "▁der": 1848,
    "▁flow": 1849,
    "▁prevents": 1850,
    "ateg": 1851,
    "▁beg": 1852,
    "▁begin": 1853,
    "▁star": 1854,
    "▁portion": 1855,
    "ameter": 1856,
    "▁stream": 1857,
    "▁indivi": 1858,
    "way": 1859,
    "oth": 1860,
    "nown": 1861,
    "uff": 1862,
    "AM": 1863,
    "▁being": 1864,
    "▁mon": 1865,
    "▁production": 1866,
    "▁ens": 1867,
    "▁vulnerability": 1868,
    "acity": 1869,
    "▁backend": 1870,
    "▁disp": 1871,
    "▁dispatch": 1872,
    "▁corresponding": 1873,
    "▁depth": 1874,
    "▁reprodu": 1875,
    "▁removes": 1876,
    "▁modifies": 1877,
    "▁recovery": 1878,
    "▁middleware": 1879,
    "▁controller": 1880,
    "wise": 1881,
    "vised": 1882,
    "▁constant": 1883,
    "▁character": 1884,
    "▁digit": 1885,
    "▁mar": 1886,
    "pace": 1887,
    "▁option": 1888,
    "▁paths": 1889,
    "▁fol": 1890,
    "▁follow": 1891,
    "▁made": 1892,
    "▁connected": 1893,
    "▁Q": 1894,
    "▁examines": 1895,
    "▁partition": 1896,
    "▁storing": 1897,
    "▁combining": 1898,
    "▁translates": 1899,
    "atical": 1900,
    "▁Semantic": 1901,
    "▁causes": 1902,
    "▁working": 1903,
    "ill": 1904,
    "orts": 1905,
    "▁Ob": 1906,
    "▁instance": 1907,
    "apsulation": 1908,
    "▁Enc": 1909,
    "▁restricts": 1910,
    "▁polymorphism": 1911,
    "▁unnecessary": 1912,
    "cepts": 1913,
    "▁initial": 1914,
    "▁longer": 1915,
    "▁Ex": 1916,
    "▁clear": 1917,
    "▁separates": 1918,
    "upling": 1919,
    "hesion": 1920,
    "▁invariant": 1921,
    "▁primary": 1922,
    "▁fast": 1923,
    "▁JS": 1924,
    "▁JSO": 1925,
    "▁JSON": 1926,
    "▁responses": 1927,
    "▁RE": 1928,
    "▁make": 1929,
    "▁own": 1930,
    "▁wait": 1931,
    "chronization": 1932,
    "▁coordinates": 1933,
    "▁manages": 1934,
    "▁eng": 1935,
    "▁engine": 1936,
    "▁go": 1937,
    "▁objective": 1938,
    "▁score": 1939,
    "▁rec": 1940,
    "▁stop": 1941,
    "hap": 1942,
    "▁likeli": 1943,
    "▁likelih": 1944,
    "▁likelihood": 1945,
    "▁RM": 1946,
    "▁RMS": 1947,
    "erature": 1948,
    "▁chos": 1949,
    "▁chosen": 1950,
    "ategy": 1951,
    "gnit": 1952,
    "▁deco": 1953,
    "▁decoding": 1954,
    "▁similarity": 1955,
    "▁Pre": 1956,
    "ost": 1957,
    "▁Ad": 1958,
    "▁present": 1959,
    "▁cause": 1960,
    "▁compile": 1961,
    "▁patch": 1962,
    "00": 1963,
    "▁cach": 1964,
    "▁temporary": 1965,
    "▁throughput": 1966,
    "▁responsibility": 1967,
    "▁edge": 1968,
    "▁invalid": 1969,
    "▁permission": 1970,
    "▁im": 1971,
    "▁duplic": 1972,
    "▁capacity": 1973,
    "▁conventions": 1974,
    "verage": 1975,
    "def": 1976,
    "defined": 1977,
    "▁compiled": 1978,
    "sol": 1979,
    "▁sty": 1980,
    "▁Pro": 1981,
    "▁methods": 1982,
    "▁names": 1983,
    "oper": 1984,
    "ropri": 1985,
    "ceful": 1986,
    "▁cred": 1987,
    "▁credential": 1988,
    "▁cryp": 1989,
    "▁crypt": 1990,
    "▁crypto": 1991,
    "▁cryptogra": 1992,
    "▁cryptograph": 1993,
    "▁product": 1994,
    "▁fl": 1995,
    "▁match": 1996,
    "▁prox": 1997,
    "▁proxy": 1998,
    "▁aggreg": 1999,
    "▁byte": 2000,
    "ind": 2001,
    "▁floating": 2002,
    "oole": 2003,
    "▁characters": 2004,
    "▁argument": 2005,
    "▁actual": 2006,
    "▁suppl": 2007,
    "▁called": 2008,
    "▁recursion": 2009,
    "▁instances": 2010,
    "▁recursive": 2011,
    "▁removed": 2012,
    "▁node": 2013,
    "osed": 2014,
    "▁approxim": 2015,
    "▁linear": 2016,
    "▁Qu": 2017,
    "▁sequential": 2018,
    "▁until": 2019,
    "▁merge": 2020,
    "▁atte": 2021,
    "▁attemp": 2022,
    "pro": 2023,
    "▁human": 2024,
    "▁mechanisms": 2025,
    "▁successfully": 2026,
    "▁orient": 2027,
    "▁oriented": 2028,
    "▁reuse": 2029,
    "▁providing": 2030,
    "▁describing": 2031,
    "▁lifet": 2032,
    "pect": 2033,
    "▁makes": 2034,
    "▁libraries": 2035,
    "▁Git": 2036,
    "▁MV": 2037,
    "▁MVC": 2038,
    "▁organization": 2039,
    "▁red": 2040,
    "undan": 2041,
    "undancy": 2042,
    "▁cert": 2043,
    "idential": 2044,
    "identiality": 2045,
    "erialization": 2046,
    "▁transm": 2047,
    "ched": 2048,
    "▁Static": 2049,
    "unding": 2050,
    "▁effects": 2051,
    "ond": 2052,
    "▁engineering": 2053,
    "▁eas": 2054,
    "▁fiel": 2055,
    "▁Tra": 2056,
    "▁adj": 2057,
    "▁Un": 2058,
    "▁limited": 2059,
    "▁bias": 2060,
    "▁tokenization": 2061,
    "▁Cross": 2062,
    "▁probabilities": 2063,
    "▁Si": 2064,
    "▁RoPE": 2065,
    "acher": 2066,
    "▁lower": 2067,
    "eterministic": 2068,
    "▁strategy": 2069,
    "▁trainable": 2070,
    "▁excess": 2071,
    "uning": 2072,
    "▁individual": 2073,
    "▁creates": 2074,
    "erve": 2075,
    "▁measure": 2076,
    "▁ear": 2077,
    "▁accur": 2078,
    "▁logging": 2079,
    "▁releases": 2080,
    "▁CI": 2081,
    "▁latency": 2082,
    "▁focuses": 2083,
    "▁Depend": 2084,
    "▁Dependency": 2085,
    "ump": 2086,
    "umption": 2087,
    "ensive": 2088,
    "▁weak": 2089,
    "▁vers": 2090,
    "▁versus": 2091,
    "▁relative": 2092,
    "▁fault": 2093,
    "▁toler": 2094,
    "▁tolerance": 2095,
    "▁both": 2096,
    "▁relying": 2097,
    "cessarily": 2098,
    "ser": 2099,
    "▁analyz": 2100,
    "▁grammar": 2101,
    "▁style": 2102,
    "▁memb": 2103,
    "▁minimum": 2104,
    "tes": 2105,
    "▁sw": 2106,
    "▁cryptographic": 2107,
    "ble": 2108,
    "▁digital": 2109,
    "▁revers": 2110,
    "▁architectural": 2111,
    "▁stable": 2112,
    "fil": 2113,
    "▁timeout": 2114,
    "▁routing": 2115,
    "▁gate": 2116,
    "▁dimensions": 2117,
    "▁shift": 2118,
    "▁positional": 2119,
    "▁decoder": 2120,
    "old": 2121,
    "▁fal": 2122,
    "▁false": 2123,
    "▁symbol": 2124,
    "▁once": 2125,
    "ats": 2126,
    "▁itself": 2127,
    "▁stops": 2128,
    "▁dynam": 2129,
    "▁dynamically": 2130,
    "▁references": 2131,
    "▁organized": 2132,
    "▁grows": 2133,
    "▁amo": 2134,
    "▁Log": 2135,
    "▁sorting": 2136,
    "▁greedy": 2137,
    "ource": 2138,
    "▁written": 2139,
    "▁constructs": 2140,
    "▁bec": 2141,
    "▁becaus": 2142,
    "▁because": 2143,
    "▁debugging": 2144,
    "▁introdu": 2145,
    "ertion": 2146,
    "▁concepts": 2147,
    "▁some": 2148,
    "▁clean": 2149,
    "▁poin": 2150,
    "▁pointer": 2151,
    "▁alloc": 2152,
    "▁groups": 2153,
    "▁SD": 2154,
    "▁SDK": 2155,
    "▁install": 2156,
    "▁separately": 2157,
    "entr": 2158,
    "▁precondition": 2159,
    "▁postc": 2160,
    "▁postcondition": 2161,
    "▁record": 2162,
    "▁making": 2163,
    "▁exchange": 2164,
    "▁traff": 2165,
    "▁traffic": 2166,
    "▁transport": 2167,
    "▁sends": 2168,
    "▁servers": 2169,
    "▁device": 2170,
    "▁REST": 2171,
    "▁numbers": 2172,
    "▁computations": 2173,
    "▁synchronization": 2174,
    "▁sur": 2175,
    "for": 2176,
    "▁pure": 2177,
    "▁modified": 2178,
    "▁callback": 2179,
    "ceed": 2180,
    "▁scalability": 2181,
    "▁improving": 2182,
    "▁tested": 2183,
    "▁goal": 2184,
    "▁Auth": 2185,
    "▁password": 2186,
    "▁algorithms": 2187,
    "▁Training": 2188,
    "▁adjust": 2189,
    "▁subset": 2190,
    "▁desired": 2191,
    "▁too": 2192,
    "▁nonline": 2193,
    "▁nonlinear": 2194,
    "▁marks": 2195,
    "prop": 2196,
    "propagation": 2197,
    "▁Back": 2198,
    "▁deriv": 2199,
    "▁maps": 2200,
    "▁RMSNorm": 2201,
    "▁help": 2202,
    "▁Sw": 2203,
    "▁Swi": 2204,
    "▁SwiG": 2205,
    "▁SwiGLU": 2206,
    "▁SiLU": 2207,
    "▁trained": 2208,
    "▁highest": 2209,
    "▁magnit": 2210,
    "▁magnitu": 2211,
    "▁magnitude": 2212,
    "parameter": 2213,
    "▁outcom": 2214,
    "▁maxim": 2215,
    "▁maximum": 2216,
    "▁At": 2217,
    "▁subl": 2218,
    "▁Res": 2219,
    "▁giv": 2220,
    "▁checkpoint": 2221,
    "imes": 2222,
    "▁tracks": 2223,
    "▁exa": 2224,
    "▁example": 2225,
    "▁indicate": 2226,
    "ments": 2227,
    "umer": 2228,
    "ics": 2229,
    "▁accessible": 2230,
    "▁setting": 2231,
    "▁settings": 2232,
    "▁monit": 2233,
    "▁Continu": 2234,
    "▁Continuous": 2235,
    "▁frequently": 2236,
    "▁endpoint": 2237,
    "▁ensures": 2238,
    "▁caching": 2239,
    "ache": 2240,
    "▁simpl": 2241,
    "▁open": 2242,
    "▁inversion": 2243,
    "▁Rep": 2244,
    "▁av": 2245,
    "▁avo": 2246,
    "▁safe": 2247,
    "▁readability": 2248,
    "oriz": 2249,
    "orizon": 2250,
    "orizontal": 2251,
    "▁fron": 2252,
    "▁front": 2253,
    "▁full": 2254,
    "▁bre": 2255,
    "▁break": 2256,
    "▁coverage": 2257,
    "▁verify": 2258,
    "▁predefined": 2259,
    "▁artifacts": 2260,
    "▁metad": 2261,
    "▁metadat": 2262,
    "▁metadata": 2263,
    "▁necessarily": 2264,
    "▁polyn": 2265,
    "▁polynom": 2266,
    "▁polynomial": 2267,
    "asing": 2268,
    "solute": 2269,
    "▁analyzes": 2270,
    "▁lexical": 2271,
    "▁overload": 2272,
    "▁private": 2273,
    "▁naming": 2274,
    "▁prior": 2275,
    "▁cyc": 2276,
    "▁short": 2277,
    "▁performing": 2278,
    "▁appropri": 2279,
    "▁swit": 2280,
    "▁interaction": 2281,
    "▁san": 2282,
    "ici": 2283,
    "▁site": 2284,
    "▁brows": 2285,
    "▁automation": 2286,
    "▁changed": 2287,
    "▁passes": 2288,
    "▁concept": 2289,
    "▁basic": 2290,
    "▁off": 2291,
    "▁acc": 2292,
    "▁exact": 2293,
    "▁cand": 2294,
    "▁candid": 2295,
    "▁addresses": 2296,
    "▁header": 2297,
    "lback": 2298,
    "▁quer": 2299,
    "▁helps": 2300,
    "▁gateway": 2301,
    "▁pol": 2302,
    "▁1": 2303,
    "▁bitwise": 2304,
    "ian": 2305,
    "▁dot": 2306,
    "▁contextual": 2307,
    "OS": 2308,
    "oolean": 2309,
    "▁variables": 2310,
    "▁instruction": 2311,
    "▁receive": 2312,
    "▁supplied": 2313,
    "▁sent": 2314,
    "▁conditional": 2315,
    "▁controlling": 2316,
    "▁nodes": 2317,
    "▁larger": 2318,
    "▁pairs": 2319,
    "▁steps": 2320,
    "▁grow": 2321,
    "▁amount": 2322,
    "▁arr": 2323,
    "▁crit": 2324,
    "▁conqu": 2325,
    "▁conquer": 2326,
    "la": 2327,
    "▁incorrect": 2328,
    "▁Test": 2329,
    "▁hides": 2330,
    "▁lifetime": 2331,
    "▁unavail": 2332,
    "▁unavailable": 2333,
    "rup": 2334,
    "▁branches": 2335,
    "▁improves": 2336,
    "▁changing": 2337,
    "▁Techn": 2338,
    "▁Technical": 2339,
    "▁modular": 2340,
    "▁coupling": 2341,
    "▁cohesion": 2342,
    "▁close": 2343,
    "▁stages": 2344,
    "val": 2345,
    "▁unique": 2346,
    "▁fore": 2347,
    "▁foreign": 2348,
    "▁Database": 2349,
    "▁redundancy": 2350,
    "▁additional": 2351,
    "▁certain": 2352,
    "▁refers": 2353,
    "▁devices": 2354,
    "▁route": 2355,
    "▁endpo": 2356,
    "▁endpoints": 2357,
    "▁guar": 2358,
    "▁guarant": 2359,
    "▁guarante": 2360,
    "▁encryption": 2361,
    "▁confidentiality": 2362,
    "▁stateless": 2363,
    "▁suit": 2364,
    "▁progress": 2365,
    "▁simult": 2366,
    "▁simultan": 2367,
    "▁simultane": 2368,
    "▁simultaneous": 2369,
    "▁unsa": 2370,
    "▁unsafe": 2371,
    "▁depends": 2372,
    "▁retrieved": 2373,
    "izing": 2374,
    "▁preserving": 2375,
    "ype": 2376,
    "▁strongly": 2377,
    "▁capability": 2378,
    "▁satisfy": 2379,
    "▁Sc": 2380,
    "▁actions": 2381,
    "alt": 2382,
    "▁learns": 2383,
    "▁K": 2384,
    "egative": 2385,
    "▁subword": 2386,
    "▁raw": 2387,
    "hape": 2388,
    "▁entrop": 2389,
    "▁entropy": 2390,
    "▁predicted": 2391,
    "▁hig": 2392,
    "▁higher": 2393,
    "▁deep": 2394,
    "▁gated": 2395,
    "▁projection": 2396,
    "▁rot": 2397,
    "ending": 2398,
    "▁temperature": 2399,
    "▁evaluate": 2400,
    "▁sever": 2401,
    "▁heads": 2402,
    "▁keep": 2403,
    "▁pretra": 2404,
    "▁continues": 2405,
    "▁Adam": 2406,
    "▁decay": 2407,
    "urages": 2408,
    "▁GE": 2409,
    "▁multip": 2410,
    "▁cal": 2411,
    "ader": 2412,
    "▁targets": 2413,
    "▁stopping": 2414,
    "▁become": 2415,
    "▁CPU": 2416,
    "▁GPU": 2417,
    "▁RAM": 2418,
    "▁store": 2419,
    "serv": 2420,
    "▁metrics": 2421,
    "▁trace": 2422,
    "▁builds": 2423,
    "iding": 2424,
    "▁expl": 2425,
    "▁connects": 2426,
    "▁bal": 2427,
    "▁happ": 2428,
    "ulates": 2429,
    "▁stub": 2430,
    "▁linker": 2431,
    "ote": 2432,
    "▁running": 2433,
    "▁commands": 2434,
    "▁proced": 2435,
    "lass": 2436,
    "▁name": 2437,
    "▁namespace": 2438,
    "▁explores": 2439,
    "▁along": 2440,
    "anning": 2441,
    "bust": 2442,
    "▁becomes": 2443,
    "▁retry": 2444,
    "ope": 2445,
    "▁unint": 2446,
    "icious": 2447,
    "▁attack": 2448,
    "sted": 2449,
    "▁browser": 2450,
    "▁secure": 2451,
    "▁appropriate": 2452,
    "▁manual": 2453,
    "▁automated": 2454,
    "▁managed": 2455,
    "▁attributes": 2456,
    "▁copies": 2457,
    "arding": 2458,
    "lish": 2459,
    "▁receives": 2460,
    "olution": 2461,
    "▁works": 2462,
    "ough": 2463,
    "▁lic": 2464,
    "▁necessary": 2465,
    "ific": 2466,
    "▁defect": 2467,
    "▁repl": 2468,
    "▁potentially": 2469,
    "▁inco": 2470,
    "▁incomp": 2471,
    "▁incompat": 2472,
    "▁incompatible": 2473,
    "▁cir": 2474,
    "▁circ": 2475,
    "▁persistence": 2476,
    "▁DN": 2477,
    "▁DNS": 2478,
    "▁del": 2479,
    "▁j": 2480,
    "▁jo": 2481,
    "▁matching": 2482,
    "▁left": 2483,
    "▁queries": 2484,
    "▁entry": 2485,
    "ification": 2486,
    "▁script": 2487,
    "ares": 2488,
    "▁compression": 2489,
    "▁blocks": 2490,
    "▁units": 2491,
    "▁super": 2492,
    "▁supervised": 2493,
    "▁norm": 2494,
    "▁against": 2495,
    "▁neg": 2496,
    "▁negative": 2497,
    "▁Boolean": 2498,
    "▁el": 2499,
    "▁preced": 2500,
    "▁least": 2501,
    "▁Rec": 2502,
    "▁technique": 2503,
    "▁base": 2504,
    "▁typically": 2505,
    "▁follows": 2506,
    "▁linked": 2507,
    "▁hier": 2508,
    "▁hierarch": 2509,
    "▁entities": 2510,
    "▁proport": 2511,
    "▁proportion": 2512,
    "▁requested": 2513,
    "▁finds": 2514,
    "▁quic": 2515,
    "▁partitions": 2516,
    "▁solves": 2517,
    "▁solutions": 2518,
    "▁overla": 2519,
    "▁overlapping": 2520,
    "oization": 2521,
    "▁Mem": 2522,
    "tec": 2523,
    "tecode": 2524,
    "▁Inte": 2525,
    "▁assertion": 2526,
    "rint": 2527,
    "▁exposes": 2528,
    "▁treated": 2529,
    "▁Ab": 2530,
    "▁attribute": 2531,
    "arb": 2532,
    "▁allocated": 2533,
    "ased": 2534,
    "▁abn": 2535,
    "▁abnormal": 2536,
    "▁tracking": 2537,
    "▁track": 2538,
    "▁coll": 2539,
    "▁commit": 2540,
    "▁confli": 2541,
    "▁pull": 2542,
    "actoring": 2543,
    "ring": 2544,
    "▁creation": 2545,
    "▁Mod": 2546,
    "▁closely": 2547,
    "▁completed": 2548,
    "▁column": 2549,
    "CI": 2550,
    "omic": 2551,
    "omicity": 2552,
    "urab": 2553,
    "urability": 2554,
    "▁No": 2555,
    "▁NoS": 2556,
    "▁NoSQL": 2557,
    "▁models": 2558,
    "▁reliable": 2559,
    "▁UD": 2560,
    "▁UDP": 2561,
    "eight": 2562,
    "▁suitable": 2563,
    "rency": 2564,
    "▁Par": 2565,
    "▁threads": 2566,
    "▁dead": 2567,
    "▁held": 2568,
    "▁race": 2569,
    "▁abstractions": 2570,
    "chedul": 2571,
    "▁surro": 2572,
    "▁surrounding": 2573,
    "▁enfor": 2574,
    "unctional": 2575,
    "▁bey": 2576,
    "▁beyond": 2577,
    "▁usability": 2578,
    "▁easily": 2579,
    "▁effectively": 2580,
    "▁mathem": 2581,
    "▁mathematical": 2582,
    "▁To": 2583,
    "▁Token": 2584,
    "▁respect": 2585,
    "▁automatic": 2586,
    "▁modules": 2587,
    "▁applying": 2588,
    "▁stability": 2589,
    "▁trains": 2590,
    "▁Inference": 2591,
    "▁scales": 2592,
    "▁Top": 2593,
    "▁smallest": 2594,
    "resh": 2595,
    "▁starting": 2596,
    "▁ris": 2597,
    "▁hyp": 2598,
    "▁hyper": 2599,
    "▁outcomes": 2600,
    "▁ins": 2601,
    "▁multi": 2602,
    "▁Att": 2603,
    "▁Attention": 2604,
    "▁sublayer": 2605,
    "▁given": 2606,
    "▁tuning": 2607,
    "▁saved": 2608,
    "▁AdamW": 2609,
    "▁regular": 2610,
    "▁smo": 2611,
    "▁calc": 2612,
    "▁provided": 2613,
    "▁unk": 2614,
    "▁unknown": 2615,
    "▁corp": 2616,
    "▁corpus": 2617,
    "▁shuff": 2618,
    "▁batches": 2619,
    "▁early": 2620,
    "▁Conf": 2621,
    "▁invest": 2622,
    "▁investig": 2623,
    "▁keeps": 2624,
    "▁minor": 2625,
    "▁newer": 2626,
    "▁returned": 2627,
    "▁2": 2628,
    "▁4": 2629,
    "▁could": 2630,
    "▁5": 2631,
    "▁encoun": 2632,
    "▁cache": 2633,
    "idth": 2634,
    "▁transmitted": 2635,
    "▁simpler": 2636,
    "▁reas": 2637,
    "▁reason": 2638,
    "▁practice": 2639,
    "▁avoid": 2640,
    "mon": 2641,
    "▁Input": 2642,
    "▁Def": 2643,
    "▁handles": 2644,
    "▁weakness": 2645,
    "▁permissions": 2646,
    "▁Fault": 2647,
    "▁desp": 2648,
    "▁despite": 2649,
    "▁incom": 2650,
    "▁incoming": 2651,
    "▁machines": 2652,
    "▁frontend": 2653,
    "▁handler": 2654,
    "▁mock": 2655,
    "▁resolution": 2656,
    "aging": 2657,
    "▁linking": 2658,
    "▁remote": 2659,
    "▁copy": 2660,
    "▁including": 2661,
    "▁NP": 2662,
    "▁active": 2663,
    "▁buff": 2664,
    "▁transfer": 2665,
    "▁directory": 2666,
    "▁organize": 2667,
    "▁absolute": 2668,
    "▁express": 2669,
    "▁parser": 2670,
    "▁symbols": 2671,
    "▁approach": 2672,
    "lar": 2673,
    "▁explicitly": 2674,
    "▁overri": 2675,
    "▁overriding": 2676,
    "▁overloading": 2677,
    "▁preventing": 2678,
    "▁choices": 2679,
    "▁priority": 2680,
    "▁vis": 2681,
    "readth": 2682,
    "mmet": 2683,
    "mmetric": 2684,
    "▁weighted": 2685,
    "▁shortest": 2686,
    "▁proo": 2687,
    "▁proof": 2688,
    "▁verification": 2689,
    "operability": 2690,
    "bustness": 2691,
    "▁switch": 2692,
    "ear": 2693,
    "▁waiting": 2694,
    "▁attempts": 2695,
    "uth": 2696,
    "▁consists": 2697,
    "ira": 2698,
    "irable": 2699,
    "▁fixes": 2700,
    "▁sanit": 2701,
    "▁sanitization": 2702,
    "▁unintended": 2703,
    "▁secre": 2704,
    "▁secret": 2705,
    "▁packages": 2706,
    "▁eventual": 2707,
    "▁temporarily": 2708,
    "lect": 2709,
    "ified": 2710,
    "▁consum": 2711,
    "▁Per": 2712,
    "▁descrip": 2713,
    "olog": 2714,
    "▁trade": 2715,
    "ident": 2716,
    "▁increasing": 2717,
    "▁mag": 2718,
    "▁magic": 2719,
    "▁lit": 2720,
    "lom": 2721,
    "lomatic": 2722,
    "▁license": 2723,
    "anges": 2724,
    "inting": 2725,
    "▁profil": 2726,
    "▁signific": 2727,
    "▁significant": 2728,
    "istics": 2729,
    "▁candidate": 2730,
    "▁lock": 2731,
    "▁propagation": 2732,
    "▁waits": 2733,
    "▁UR": 2734,
    "▁join": 2735,
    "▁eith": 2736,
    "▁either": 2737,
    "▁rollback": 2738,
    "▁mu": 2739,
    "▁much": 2740,
    "▁forwards": 2741,
    "▁restores": 2742,
    "▁exit": 2743,
    "▁polic": 2744,
    "▁aud": 2745,
    "ered": 2746,
    "▁flag": 2747,
    "▁packets": 2748,
    "▁fire": 2749,
    "▁firew": 2750,
    "▁firewall": 2751,
    "▁endian": 2752,
    "▁lab": 2753,
    "▁label": 2754,
    "▁embeddings": 2755,
    "▁trun": 2756,
    "▁truncation": 2757,
    "▁Context": 2758,
    "▁encoder": 2759,
    "▁Layer": 2760,
    "▁LayerNorm": 2761,
    "rel": 2762,
    "▁EOS": 2763,
    "▁aggregation": 2764,
    "▁scope": 2765,
    "anged": 2766,
    "▁fraction": 2767,
    "▁textual": 2768,
    "▁operand": 2769,
    "▁combination": 2770,
    "▁tell": 2771,
    "▁action": 2772,
    "▁optionally": 2773,
    "▁if": 2774,
    "▁altern": 2775,
    "▁bod": 2776,
    "▁body": 2777,
    "▁Recur": 2778,
    "▁Recursion": 2779,
    "▁solve": 2780,
    "▁fur": 2781,
    "▁further": 2782,
    "▁composed": 2783,
    "▁precise": 2784,
    "▁Big": 2785,
    "▁approximately": 2786,
    "▁criter": 2787,
    "▁divide": 2788,
    "▁merges": 2789,
    "▁glo": 2790,
    "▁glob": 2791,
    "▁subpro": 2792,
    "▁subprob": 2793,
    "▁subproblem": 2794,
    "▁subproblems": 2795,
    "▁solving": 2796,
    "▁Source": 2797,
    "▁Syn": 2798,
    "▁viol": 2799,
    "▁behaves": 2800,
    "▁introduced": 2801,
    "▁encapsulation": 2802,
    "▁Encapsulation": 2803,
    "▁Inheritance": 2804,
    "▁destruct": 2805,
    "▁reserv": 2806,
    "arbage": 2807,
    "▁released": 2808,
    "▁collab": 2809,
    "▁collabor": 2810,
    "▁maintainable": 2811,
    "ton": 2812,
    "▁centr": 2813,
    "▁central": 2814,
    "▁concrete": 2815,
    "▁Modular": 2816,
    "▁faster": 2817,
    "▁documents": 2818,
    "lex": 2819,
    "▁networking": 2820,
    "▁standardized": 2821,
    "▁parallelism": 2822,
    "▁schedul": 2823,
    "▁specifying": 2824,
    "▁Type": 2825,
    "▁parad": 2826,
    "▁paradig": 2827,
    "▁paradigm": 2828,
    "▁emp": 2829,
    "▁emph": 2830,
    "▁emphas": 2831,
    "▁observable": 2832,
    "▁passed": 2833,
    "▁Event": 2834,
    "▁synchronous": 2835,
    "▁handle": 2836,
    "▁adding": 2837,
    "▁Rel": 2838,
    "▁understood": 2839,
    "▁goals": 2840,
    "▁Authent": 2841,
    "▁Authentication": 2842,
    "orization": 2843,
    "▁hashing": 2844,
    "▁decisions": 2845,
    "▁Gradient": 2846,
    "▁dire": 2847,
    "▁direction": 2848,
    "▁overfitting": 2849,
    "▁Self": 2850,
    "▁nonn": 2851,
    "▁nonnegative": 2852,
    "▁sum": 2853,
    "▁BPE": 2854,
    "yte": 2855,
    "▁Padding": 2856,
    "▁shape": 2857,
    "▁backpropagation": 2858,
    "atives": 2859,
    "orch": 2860,
    "iation": 2861,
    "▁Autom": 2862,
    "▁systematically": 2863,
    "▁subt": 2864,
    "▁teacher": 2865,
    "▁selection": 2866,
    "▁Deterministic": 2867,
    "▁begins": 2868,
    "▁initialized": 2869,
    "▁risk": 2870,
    "▁estimate": 2871,
    "▁was": 2872,
    "▁wind": 2873,
    "▁window": 2874,
    "▁Mult": 2875,
    "▁several": 2876,
    "ends": 2877,
    "▁fine": 2878,
    "▁somet": 2879,
    "▁diction": 2880,
    "▁dictionary": 2881,
    "▁save": 2882,
    "▁maintained": 2883,
    "▁pen": 2884,
    "▁penalt": 2885,
    "▁randomly": 2886,
    "▁structural": 2887,
    "▁boundaries": 2888,
    "▁beginning": 2889,
    "▁preserve": 2890,
    "▁Sh": 2891,
    "▁diff": 2892,
    "▁diffic": 2893,
    "▁difficult": 2894,
    "▁workloads": 2895,
    "▁Pack": 2896,
    "▁unus": 2897,
    "▁observability": 2898,
    "▁logs": 2899,
    "▁traces": 2900,
    "▁deployable": 2901,
    "▁CD": 2902,
    "▁automate": 2903,
    "▁differ": 2904,
    "king": 2905,
    "▁encounte": 2906,
    "▁encountered": 2907,
    "▁retrieving": 2908,
    "▁Lat": 2909,
    "▁Th": 2910,
    "▁implementations": 2911,
    "▁know": 2912,
    "ledge": 2913,
    "▁implemented": 2914,
    "▁assumption": 2915,
    "▁assumptions": 2916,
    "▁termination": 2917,
    "▁range": 2918,
    "▁immediate": 2919,
    "istribut": 2920,
    "▁fails": 2921,
    "▁Avail": 2922,
    "▁Availability": 2923,
    "▁balan": 2924,
    "▁distributes": 2925,
    "▁vertical": 2926,
    "▁guide": 2927,
    "▁cases": 2928,
    "▁Ac": 2929,
    "▁iterative": 2930,
    "▁ach": 2931,
    "▁achie": 2932,
    "▁find": 2933,
    "▁bounded": 2934,
    "▁region": 2935,
    "▁buffer": 2936,
    "larative": 2937,
    "▁Composition": 2938,
    "aren": 2939,
    "arent": 2940,
    "▁fields": 2941,
    "▁member": 2942,
    "▁defining": 2943,
    "▁Exp": 2944,
    "tracking": 2945,
    "▁directed": 2946,
    "▁vertex": 2947,
    "▁und": 2948,
    "▁cycle": 2949,
    "▁distance": 2950,
    "▁spanning": 2951,
    "▁reproduc": 2952,
    "▁platforms": 2953,
    "▁excessive": 2954,
    "ili": 2955,
    "▁graceful": 2956,
    "▁Graceful": 2957,
    "▁failed": 2958,
    "▁ide": 2959,
    "▁influ": 2960,
    "▁authorized": 2961,
    "▁accurate": 2962,
    "▁thre": 2963,
    "▁actor": 2964,
    "▁known": 2965,
    "▁scripting": 2966,
    "▁protect": 2967,
    "▁orig": 2968,
    "▁origin": 2969,
    "▁reverse": 2970,
    "▁image": 2971,
    "▁replication": 2972,
    "▁locations": 2973,
    "▁sharding": 2974,
    "▁Strong": 2975,
    "▁subsc": 2976,
    "▁subscrib": 2977,
    "▁modifying": 2978,
    "▁effort": 2979,
    "▁enough": 2980,
    "▁hiding": 2981,
    "ured": 2982,
    "▁equ": 2983,
    "▁exposed": 2984,
    "▁vulnerabilities": 2985,
    "▁Sec": 2986,
    "▁supported": 2987,
    "▁define": 2988,
    "▁conside": 2989,
    "▁considered": 2990,
    "ix": 2991,
    "▁replaces": 2992,
    "▁circular": 2993,
    "▁State": 2994,
    "▁transition": 2995,
    "allback": 2996,
    "▁runs": 2997,
    "▁limiting": 2998,
    "▁invalidation": 2999,
    "▁even": 3000,
    "▁look": 3001,
    "▁OR": 3002,
    "▁increment": 3003,
    "arning": 3004,
    "▁mut": 3005,
    "itive": 3006,
    "▁expir": 3007,
    "▁expiration": 3008,
    "▁audit": 3009,
    "▁comment": 3010,
    "▁ign": 3011,
    "▁bytes": 3012,
    "▁exceed": 3013,
    "▁exceeds": 3014,
    "▁count": 3015,
    "▁logit": 3016,
    "▁applied": 3017,
    "▁includes": 3018,
    "▁correl": 3019,
    "▁contribut": 3020,
    "▁wor": 3021,
    "ivers": 3022,
    "▁appear": 3023,
    "ably": 3024,
    "▁view": 3025,
    "▁posit": 3026,
    "▁positive": 3027,
    "▁fractional": 3028,
    "▁operators": 3029,
    "▁tells": 3030,
    "▁else": 3031,
    "▁alternative": 3032,
    "▁initialization": 3033,
    "▁repeats": 3034,
    "▁hierarchical": 3035,
    "▁consisting": 3036,
    "▁notation": 3037,
    "akes": 3038,
    "arithm": 3039,
    "▁reducing": 3040,
    "▁sequentially": 3041,
    "▁found": 3042,
    "▁Binary": 3043,
    "▁sorted": 3044,
    "orting": 3045,
    "ksort": 3046,
    "▁choos": 3047,
    "▁best": 3048,
    "▁good": 3049,
    "▁dividing": 3050,
    "▁grammatical": 3051,
    "▁wrong": 3052,
    "anding": 3053,
    "▁checking": 3054,
    "▁Integ": 3055,
    "▁Reg": 3056,
    "▁still": 3057,
    "▁Object": 3058,
    "▁manip": 3059,
    "ulate": 3060,
    "▁Abstra": 3061,
    "▁Abstraction": 3062,
    "▁constructor": 3063,
    "▁destructor": 3064,
    "▁languages": 3065,
    "▁cleanup": 3066,
    "▁ends": 3067,
    "▁indirect": 3068,
    "▁accessing": 3069,
    "▁reachable": 3070,
    "▁handled": 3071,
    "▁propag": 3072,
    "▁building": 3073,
    "▁tracked": 3074,
    "entionally": 3075,
    "▁debt": 3076,
    "▁caused": 3077,
    "▁quick": 3078,
    "▁imper": 3079,
    "fect": 3080,
    "ainable": 3081,
    "▁understandable": 3082,
    "▁Single": 3083,
    "▁Singleton": 3084,
    "▁Fact": 3085,
    "▁Factory": 3086,
    "▁deg": 3087,
    "▁degree": 3088,
    "▁throughout": 3089,
    "▁ACI": 3090,
    "▁ACID": 3091,
    "▁atomicity": 3092,
    "▁durability": 3093,
    "▁connectionless": 3094,
    "▁deserialization": 3095,
    "▁deadlo": 3096,
    "▁deadlock": 3097,
    "ctable": 3098,
    "▁tim": 3099,
    "▁timing": 3100,
    "▁scheduler": 3101,
    "▁organizing": 3102,
    "▁iterator": 3103,
    "▁generic": 3104,
    "▁enforces": 3105,
    "▁implicit": 3106,
    "▁Functional": 3107,
    "▁emphasizes": 3108,
    "utability": 3109,
    "▁simp": 3110,
    "▁simply": 3111,
    "▁lam": 3112,
    "▁lamb": 3113,
    "▁lambd": 3114,
    "▁lambda": 3115,
    "▁respond": 3116,
    "▁Scal": 3117,
    "▁Reli": 3118,
    "▁Reliability": 3119,
    "▁Maint": 3120,
    "aired": 3121,
    "▁allowed": 3122,
    "▁field": 3123,
    "▁descent": 3124,
    "▁Over": 3125,
    "▁unseen": 3126,
    "▁capt": 3127,
    "▁Query": 3128,
    "▁Softmax": 3129,
    "▁item": 3130,
    "▁word": 3131,
    "▁frequent": 3132,
    "▁estimates": 3133,
    "▁derivatives": 3134,
    "▁Py": 3135,
    "▁tensors": 3136,
    "▁dimensional": 3137,
    "▁aff": 3138,
    "ormalization": 3139,
    "▁encodes": 3140,
    "▁forcing": 3141,
    "▁Teacher": 3142,
    "umul": 3143,
    "▁Gener": 3144,
    "▁hyperparameter": 3145,
    "▁Greedy": 3146,
    "▁simultaneously": 3147,
    "▁scaled": 3148,
    "▁forced": 3149,
    "▁following": 3150,
    "▁pretraining": 3151,
    "▁sometimes": 3152,
    "ored": 3153,
    "▁regularization": 3154,
    "ropout": 3155,
    "▁GELU": 3156,
    "▁sig": 3157,
    "▁sigmo": 3158,
    "▁sigmoid": 3159,
    "▁treating": 3160,
    "process": 3161,
    "processing": 3162,
    "▁unw": 3163,
    "▁unwant": 3164,
    "▁unwanted": 3165,
    "▁DataL": 3166,
    "▁DataLo": 3167,
    "▁DataLoader": 3168,
    "▁loading": 3169,
    "▁Batch": 3170,
    "▁Loss": 3171,
    "▁improvements": 3172,
    "▁show": 3173,
    "▁extre": 3174,
    "▁extrem": 3175,
    "▁extreme": 3176,
    "▁Numer": 3177,
    "▁accurately": 3178,
    "▁responsible": 3179,
    "▁VR": 3180,
    "▁VRAM": 3181,
    "▁graphics": 3182,
    "▁Config": 3183,
    "▁Configuration": 3184,
    "▁monitoring": 3185,
    "▁Mon": 3186,
    "▁heal": 3187,
    "▁health": 3188,
    "▁practices": 3189,
    "▁setup": 3190,
    "▁wr": 3191,
    "▁write": 3192,
    "▁Backward": 3193,
    "▁ol": 3194,
    "▁200": 3195,
    "▁40": 3196,
    "▁404": 3197,
    "▁500": 3198,
    "tial": 3199,
    "▁Latency": 3200,
    "ann": 3201,
    "▁encourages": 3202,
    "▁Y": 3203,
    "▁duplication": 3204,
    "▁knowledge": 3205,
    "▁explains": 3206,
    "▁defensive": 3207,
    "▁Defensive": 3208,
    "tic": 3209,
    "▁safely": 3210,
    "▁comprom": 3211,
    "▁compromise": 3212,
    "▁privi": 3213,
    "▁privile": 3214,
    "▁privilege": 3215,
    "▁permitted": 3216,
    "▁ease": 3217,
    "side": 3218,
    "▁mic": 3219,
    "▁micro": 3220,
    "▁microserv": 3221,
    "▁microservice": 3222,
    "▁relatively": 3223,
    "olith": 3224,
    "olithic": 3225,
    "▁duplicate": 3226,
    "▁operational": 3227,
    "▁horizontal": 3228,
    "▁Horizontal": 3229,
    "▁returns": 3230,
    "▁invol": 3231,
    "▁signal": 3232,
    "▁acceptance": 3233,
    "▁suff": 3234,
    "▁sufficient": 3235,
    "▁automates": 3236,
    "▁Compil": 3237,
    "▁resolves": 3238,
    "▁branching": 3239,
    "ged": 3240,
    "▁pus": 3241,
    "▁push": 3242,
    "▁nond": 3243,
    "▁heur": 3244,
    "▁heuristic": 3245,
    "▁tied": 3246,
    "▁frames": 3247,
    "ystem": 3248,
    "▁syntact": 3249,
    "▁lexer": 3250,
    "▁formal": 3251,
    "leg": 3252,
    "▁Met": 3253,
    "▁Method": 3254,
    "▁subc": 3255,
    "▁subclass": 3256,
    "▁inherit": 3257,
    "▁parent": 3258,
    "▁modifier": 3259,
    "▁members": 3260,
    "▁derived": 3261,
    "▁identifi": 3262,
    "▁identifiers": 3263,
    "asting": 3264,
    "▁enum": 3265,
    "▁tup": 3266,
    "▁tuple": 3267,
    "▁map": 3268,
    "▁associates": 3269,
    "▁backtracking": 3270,
    "▁undirect": 3271,
    "▁undirected": 3272,
    "▁Di": 3273,
    "▁Dij": 3274,
    "▁Dijk": 3275,
    "▁Dijkstra": 3276,
    "▁total": 3277,
    "▁guarantees": 3278,
    "inism": 3279,
    "▁obt": 3280,
    "▁Inter": 3281,
    "▁extens": 3282,
    "ilience": 3283,
    "▁degra": 3284,
    "▁degrad": 3285,
    "▁degradation": 3286,
    "over": 3287,
    "onential": 3288,
    "▁backo": 3289,
    "▁backoff": 3290,
    "mpot": 3291,
    "▁rely": 3292,
    "▁stateful": 3293,
    "▁cook": 3294,
    "▁cookie": 3295,
    "▁pie": 3296,
    "▁unauth": 3297,
    "▁unauthor": 3298,
    "▁unauthorized": 3299,
    "▁CIA": 3300,
    "▁tri": 3301,
    "▁triad": 3302,
    "▁undes": 3303,
    "▁undesirable": 3304,
    "▁mal": 3305,
    "▁forg": 3306,
    "▁forgery": 3307,
    "▁trusted": 3308,
    "▁signature": 3309,
    "▁minimal": 3310,
    "vention": 3311,
    "▁containerization": 3312,
    "▁needs": 3313,
    "▁creating": 3314,
    "▁partitioning": 3315,
    "▁subsets": 3316,
    "operate": 3317,
    "ensus": 3318,
    "▁consumers": 3319,
    "▁continuing": 3320,
    "▁evolution": 3321,
    "▁adaptive": 3322,
    "tive": 3323,
    "▁Ag": 3324,
    "▁adaptation": 3325,
    "▁sprint": 3326,
    "▁backlog": 3327,
    "▁iss": 3328,
    "▁feas": 3329,
    "▁technolog": 3330,
    "▁focused": 3331,
    "▁smel": 3332,
    "▁smell": 3333,
    "ained": 3334,
    "▁numeric": 3335,
    "▁liter": 3336,
    "▁literal": 3337,
    "▁permits": 3338,
    "▁preserves": 3339,
    "▁formatting": 3340,
    "▁sus": 3341,
    "▁susp": 3342,
    "▁suspicious": 3343,
    "▁tool": 3344,
    "▁profiling": 3345,
    "▁overall": 3346,
    "▁consumption": 3347,
    "mature": 3348,
    "▁Load": 3349,
    "▁Perform": 3350,
    "▁Performance": 3351,
    "▁mis": 3352,
    "▁export": 3353,
    "▁mutable": 3354,
    "▁observe": 3355,
    "▁notif": 3356,
    "▁notifications": 3357,
    "▁adapter": 3358,
    "own": 3359,
    "▁moves": 3360,
    "▁fallback": 3361,
    "▁descript": 3362,
    "▁descriptor": 3363,
    "▁sock": 3364,
    "▁socket": 3365,
    "AT": 3366,
    "ially": 3367,
    "▁DT": 3368,
    "▁DTO": 3369,
    "▁accepted": 3370,
    "▁pool": 3371,
    "▁right": 3372,
    "sist": 3373,
    "▁lookup": 3374,
    "▁select": 3375,
    "▁discovery": 3376,
    "aster": 3377,
    "▁corrup": 3378,
    "▁warning": 3379,
    "▁investigates": 3380,
    "▁coding": 3381,
    "▁roles": 3382,
    "▁compare": 3383,
    "▁observed": 3384,
    "▁smoke": 3385,
    "▁sens": 3386,
    "▁sensitive": 3387,
    "▁manager": 3388,
    "▁protects": 3389,
    "▁privac": 3390,
    "▁privacy": 3391,
    "▁policy": 3392,
    "onal": 3393,
    "▁prom": 3394,
    "▁exc": 3395,
    "▁Domain": 3396,
    "▁generate": 3397,
    "▁leakage": 3398,
    "▁breaking": 3399,
    "recation": 3400,
    "▁gradu": 3401,
    "▁gradually": 3402,
    "lue": 3403,
    "▁gre": 3404,
    "▁green": 3405,
    "▁provision": 3406,
    "▁provisioning": 3407,
    "▁subn": 3408,
    "▁subnet": 3409,
    "▁addressing": 3410,
    "▁estab": 3411,
    "▁establish": 3412,
    "host": 3413,
    "▁host": 3414,
    "▁few": 3415,
    "▁original": 3416,
    "▁underflow": 3417,
    "▁transpose": 3418,
    "▁batching": 3419,
    "▁width": 3420,
    "parameterized": 3421,
    "▁stri": 3422,
    "▁strict": 3423,
    "▁extra": 3424,
    "▁substant": 3425,
    "uper": 3426,
    "upervised": 3427,
    "▁labels": 3428,
    "▁classification": 3429,
    "uracy": 3430,
    "▁actually": 3431,
    "▁tying": 3432,
    "aten": 3433,
    "atenation": 3434,
    "▁FF": 3435,
    "▁FFN": 3436,
    "▁happens": 3437,
    "▁quant": 3438,
    "▁streaming": 3439,
    "▁guides": 3440,
    "▁incorp": 3441,
    "▁incorpor": 3442,
    "▁Valid": 3443,
    "▁Validation": 3444,
    "▁asks": 3445,
    "▁plus": 3446,
    "▁specify": 3447,
    "▁compares": 3448,
    "▁free": 3449,
    "file": 3450,
    "▁AB": 3451,
    "▁ABI": 3452,
    "▁pip": 3453,
    "▁pipel": 3454,
    "▁pipeline": 3455,
    "▁hold": 3456,
    "▁whole": 3457,
    "▁preceding": 3458,
    "▁satisfied": 3459,
    "▁indexes": 3460,
    "aced": 3461,
    "▁algorithmic": 3462,
    "▁Al": 3463,
    "▁Algorithm": 3464,
    "▁asy": 3465,
    "▁Line": 3466,
    "▁Linear": 3467,
    "▁logarithm": 3468,
    "alf": 3469,
    "▁locally": 3470,
    "▁global": 3471,
    "▁memoization": 3472,
    "▁Memoization": 3473,
    "▁translating": 3474,
    "▁evaluating": 3475,
    "▁Mach": 3476,
    "▁Machine": 3477,
    "▁bytecode": 3478,
    "▁By": 3479,
    "▁Bytecode": 3480,
    "▁supporting": 3481,
    "▁Synt": 3482,
    "▁violates": 3483,
    "▁Deb": 3484,
    "▁Debug": 3485,
    "▁Debugging": 3486,
    "▁Regression": 3487,
    "▁reports": 3488,
    "▁manipulate": 3489,
    "▁acqu": 3490,
    "▁Po": 3491,
    "▁Poly": 3492,
    "▁Polymorphism": 3493,
    "▁alias": 3494,
    "▁garbage": 3495,
    "▁abs": 3496,
    "▁absence": 3497,
    "▁Exception": 3498,
    "▁detecting": 3499,
    "▁everyth": 3500,
    "▁everything": 3501,
    "▁collaborate": 3502,
    "▁projects": 3503,
    "▁developed": 3504,
    "▁conflict": 3505,
    "▁combined": 3506,
    "▁refactoring": 3507,
    "▁Ref": 3508,
    "▁Refactoring": 3509,
    "▁intentionally": 3510,
    "▁Cle": 3511,
    "▁Clean": 3512,
    "▁modularity": 3513,
    "▁Modularity": 3514,
    "▁Coupling": 3515,
    "▁Cohesion": 3516,
    "▁uniquely": 3517,
    "▁Comput": 3518,
    "▁protocols": 3519,
    "▁datagram": 3520,
    "▁guarantee": 3521,
    "▁guaranteeing": 3522,
    "▁TL": 3523,
    "▁TLS": 3524,
    "▁light": 3525,
    "▁lightw": 3526,
    "▁lightweight": 3527,
    "▁arrays": 3528,
    "▁strings": 3529,
    "▁Serialization": 3530,
    "▁transmission": 3531,
    "▁Des": 3532,
    "▁serial": 3533,
    "▁concurrency": 3534,
    "▁Concur": 3535,
    "▁Concurrency": 3536,
    "▁Parallel": 3537,
    "▁sha": 3538,
    "▁shares": 3539,
    "inite": 3540,
    "▁unp": 3541,
    "▁unpredi": 3542,
    "▁unpredictable": 3543,
    "▁director": 3544,
    "▁directories": 3545,
    "▁runn": 3546,
    "▁runnable": 3547,
    "▁exposing": 3548,
    "▁expressions": 3549,
    "▁Imm": 3550,
    "▁handl": 3551,
    "▁handlers": 3552,
    "▁As": 3553,
    "▁Asynchronous": 3554,
    "▁Scalability": 3555,
    "▁repaired": 3556,
    "▁Us": 3557,
    "▁Usability": 3558,
    "▁acco": 3559,
    "▁Authorization": 3560,
    "▁Encryption": 3561,
    "hing": 3562,
    "▁underfitting": 3563,
    "▁capture": 3564,
    "▁transforming": 3565,
    "▁importance": 3566,
    "▁Ke": 3567,
    "▁dense": 3568,
    "▁mapp": 3569,
    "▁recon": 3570,
    "▁Pair": 3571,
    "coding": 3572,
    "▁unnormal": 3573,
    "▁unnormalized": 3574,
    "▁Backpropagation": 3575,
    "▁chain": 3576,
    "▁PyT": 3577,
    "▁PyTorch": 3578,
    "▁differentiation": 3579,
    "▁Automatic": 3580,
    "▁scalar": 3581,
    "▁normalizes": 3582,
    "▁subtract": 3583,
    "▁subtracting": 3584,
    "▁helping": 3585,
    "▁Embedding": 3586,
    "▁rotating": 3587,
    "▁attending": 3588,
    "▁predicting": 3589,
    "▁Temp": 3590,
    "▁Temperature": 3591,
    "▁producing": 3592,
    "▁concentr": 3593,
    "▁concentrated": 3594,
    "▁cumul": 3595,
    "▁cumulative": 3596,
    "▁thresh": 3597,
    "▁threshold": 3598,
    "▁excessively": 3599,
    "▁generalization": 3600,
    "▁adjusted": 3601,
    "▁Hidden": 3602,
    "▁Residual": 3603,
    "▁easier": 3604,
    "▁Next": 3605,
    "▁pretrained": 3606,
    "▁scr": 3607,
    "▁scratch": 3608,
    "▁Weight": 3609,
    "▁discourages": 3610,
    "▁penalties": 3611,
    "▁activations": 3612,
    "ways": 3613,
    "▁convers": 3614,
    "▁conversational": 3615,
    "▁assist": 3616,
    "▁assistant": 3617,
    "▁preprocessing": 3618,
    "▁transformations": 3619,
    "▁shuffling": 3620,
    "▁Shuff": 3621,
    "▁shuffle": 3622,
    "▁far": 3623,
    "▁terminates": 3624,
    "▁earli": 3625,
    "▁Numerical": 3626,
    "▁designing": 3627,
    "▁Floating": 3628,
    "▁vol": 3629,
    "▁volat": 3630,
    "▁volatile": 3631,
    "▁indirectly": 3632,
    "▁Package": 3633,
    "▁updating": 3634,
    "▁monitor": 3635,
    "▁Monit": 3636,
    "▁Monitoring": 3637,
    "▁unusual": 3638,
    "▁Observ": 3639,
    "▁Observability": 3640,
    "▁examining": 3641,
    "▁measurement": 3642,
    "▁describe": 3643,
    "▁validating": 3644,
    "▁Deploy": 3645,
    "▁Deployment": 3646,
    "▁older": 3647,
    "▁served": 3648,
    "▁chann": 3649,
    "▁channel": 3650,
    "▁beh": 3651,
    "▁separation": 3652,
    "▁Sep": 3653,
    "▁Separ": 3654,
    "▁Separation": 3655,
    "▁distin": 3656,
    "▁distinct": 3657,
    "▁closed": 3658,
    "▁places": 3659,
    "▁implementing": 3660,
    "eat": 3661,
    "▁there": 3662,
    "▁demon": 3663,
    "▁demonst": 3664,
    "▁demonstr": 3665,
    "▁precisely": 3666,
    "▁Cor": 3667,
    "▁Correct": 3668,
    "▁reve": 3669,
    "▁reveal": 3670,
    "▁exploit": 3671,
    "▁exploited": 3672,
    "▁Le": 3673,
    "▁separate": 3674,
    "▁monolithic": 3675,
    "▁Distribut": 3676,
    "▁computers": 3677,
    "▁Vert": 3678,
    "▁Vertical": 3679,
    "▁involves": 3680,
    "▁trig": 3681,
    "ker": 3682,
    "▁suite": 3683,
    "▁Accept": 3684,
    "▁Acceptance": 3685,
    "▁sufficiently": 3686,
    "▁packaging": 3687,
    "▁Compilation": 3688,
    "▁reviewed": 3689,
    "▁nondeterministic": 3690,
    "▁loops": 3691,
    "▁practical": 3692,
    "▁reached": 3693,
    "▁contex": 3694,
    "▁contexts": 3695,
    "▁Stack": 3696,
    "▁Memory": 3697,
    "▁persistently": 3698,
    "▁filesystem": 3699,
    "▁progressively": 3700,
    "▁Lex": 3701,
    "▁Lexical": 3702,
    "▁reads": 3703,
    "▁interpreted": 3704,
    "▁declarative": 3705,
    "▁Dec": 3706,
    "▁procedures": 3707,
    "▁deleg": 3708,
    "av": 3709,
    "▁inherited": 3710,
    "▁signatures": 3711,
    "▁Multiple": 3712,
    "▁Pub": 3713,
    "▁Prot": 3714,
    "▁conflicts": 3715,
    "▁programmer": 3716,
    "▁supports": 3717,
    "▁doub": 3718,
    "▁double": 3719,
    "▁removal": 3720,
    "ues": 3721,
    "▁travers": 3722,
    "▁traversal": 3723,
    "iting": 3724,
    "▁breadth": 3725,
    "▁Breadth": 3726,
    "▁discove": 3727,
    "▁discovered": 3728,
    "▁Depth": 3729,
    "▁symmetric": 3730,
    "▁starts": 3731,
    "▁minimizes": 3732,
    "▁prove": 3733,
    "▁completes": 3734,
    "eterminism": 3735,
    "▁reproducibility": 3736,
    "▁obtain": 3737,
    "▁portability": 3738,
    "▁Port": 3739,
    "▁Portability": 3740,
    "▁interoperability": 3741,
    "▁Interoperability": 3742,
    "▁robustness": 3743,
    "▁Robustness": 3744,
    "▁resilience": 3745,
    "▁recover": 3746,
    "▁acceptable": 3747,
    "▁failover": 3748,
    "▁Fail": 3749,
    "▁failing": 3750,
    "▁idempot": 3751,
    "▁piece": 3752,
    "▁subse": 3753,
    "▁subsequ": 3754,
    "▁subsequent": 3755,
    "▁webs": 3756,
    "▁website": 3757,
    "▁identities": 3758,
    "▁threat": 3759,
    "▁har": 3760,
    "▁malicious": 3761,
    "▁untru": 3762,
    "▁untrusted": 3763,
    "▁scripts": 3764,
    "▁prote": 3765,
    "▁authenticate": 3766,
    "▁communic": 3767,
    "▁intervention": 3768,
    "▁Inf": 3769,
    "▁Infrastructure": 3770,
    "▁containers": 3771,
    "▁Virtual": 3772,
    "▁cloud": 3773,
    "one": 3774,
    "▁Replication": 3775,
    "▁Eventual": 3776,
    "▁replic": 3777,
    "▁replicas": 3778,
    "▁converge": 3779,
    "▁toward": 3780,
    "▁recent": 3781,
    "▁cooperate": 3782,
    "▁unified": 3783,
    "▁consensus": 3784,
    "▁receiv": 3785,
    "▁subscribe": 3786,
    "▁topics": 3787,
    "▁Synchronous": 3788,
    "▁functioning": 3789,
    "▁Adap": 3790,
    "▁lifec": 3791,
    "▁lifecyc": 3792,
    "▁lifecycle": 3793,
    "▁agile": 3794,
    "▁items": 3795,
    "▁sta": 3796,
    "▁stake": 3797,
    "▁stakeh": 3798,
    "▁feasibility": 3799,
    "▁proposed": 3800,
    "▁technologies": 3801,
    "▁choice": 3802,
    "▁interacting": 3803,
    "▁duplicated": 3804,
    "▁unexpl": 3805,
    "▁unexplained": 3806,
    "▁cyclomatic": 3807,
    "▁Cyc": 3808,
    "▁Cyclomatic": 3809,
    "▁configured": 3810,
    "▁restrictions": 3811,
    "▁Op": 3812,
    "▁forms": 3813,
    "▁equiv": 3814,
    "▁equival": 3815,
    "▁equivalent": 3816,
    "▁installations": 3817,
    "▁reproduce": 3818,
    "▁presentation": 3819,
    "▁linting": 3820,
    "▁Linting": 3821,
    "▁colle": 3822,
    "▁collects": 3823,
    "▁stress": 3824,
    "▁characteristics": 3825,
    "▁configur": 3826,
    "▁configurations": 3827,
    "▁criteri": 3828,
    "▁criteria": 3829,
    "▁ready": 3830,
    "▁defin": 3831,
    "▁definition": 3832,
    "▁updated": 3833,
    "▁obser": 3834,
    "▁observer": 3835,
    "▁Obser": 3836,
    "▁Observer": 3837,
    "▁behaviors": 3838,
    "▁Er": 3839,
    "▁Error": 3840,
    "▁prefer": 3841,
    "▁preferred": 3842,
    "▁Resource": 3843,
    "▁locate": 3844,
    "▁URL": 3845,
    "▁URI": 3846,
    "▁GET": 3847,
    "▁PO": 3848,
    "▁POST": 3849,
    "▁PU": 3850,
    "▁PUT": 3851,
    "▁DE": 3852,
    "▁DEL": 3853,
    "▁DELE": 3854,
    "▁DELET": 3855,
    "▁DELETE": 3856,
    "▁identified": 3857,
    "▁Middleware": 3858,
    "▁Rout": 3859,
    "▁Routing": 3860,
    "▁Business": 3861,
    "▁filter": 3862,
    "▁delib": 3863,
    "▁deliber": 3864,
    "▁deliberately": 3865,
    "▁committed": 3866,
    "▁unac": 3867,
    "▁unaccept": 3868,
    "▁unacceptable": 3869,
    "▁incon": 3870,
    "▁inconsist": 3871,
    "▁reverses": 3872,
    "▁writing": 3873,
    "ants": 3874,
    "▁coordinate": 3875,
    "▁detection": 3876,
    "▁incremental": 3877,
    "▁restor": 3878,
    "▁restoration": 3879,
    "▁cate": 3880,
    "▁categor": 3881,
    "▁Secure": 3882,
    "▁integrated": 3883,
    "▁generates": 3884,
    "▁improper": 3885,
    "▁improperly": 3886,
    "▁repeat": 3887,
    "▁logically": 3888,
    "▁main": 3889,
    "▁car": 3890,
    "▁transformed": 3891,
    "▁entering": 3892,
    "▁she": 3893,
    "▁shell": 3894,
    "▁reduced": 3895,
    "▁refresh": 3896,
    "▁retain": 3897,
    "▁formats": 3898,
    "▁realize": 3899,
    "▁persistent": 3900,
    "▁aggregate": 3901,
    "▁nat": 3902,
    "ML": 3903,
    "▁phy": 3904,
    "▁phys": 3905,
    "▁physical": 3906,
    "▁presents": 3907,
    "▁simple": 3908,
    "▁discoura": 3909,
    "▁rollo": 3910,
    "▁rollout": 3911,
    "▁Rol": 3912,
    "▁prep": 3913,
    "▁prepares": 3914,
    "ayload": 3915,
    "▁Loc": 3916,
    "▁Local": 3917,
    "▁den": 3918,
    "▁exactly": 3919,
    "▁Unic": 3920,
    "▁Unicode": 3921,
    "▁points": 3922,
    "▁digits": 3923,
    "▁kil": 3924,
    "▁kilo": 3925,
    "▁kilob": 3926,
    "▁Bit": 3927,
    "tle": 3928,
    "▁multiplication": 3929,
    "▁products": 3930,
    "▁resulting": 3931,
    "▁Tensor": 3932,
    "▁broad": 3933,
    "▁Parameter": 3934,
    "▁statistics": 3935,
    "▁Class": 3936,
    "▁accuracy": 3937,
    "▁scoring": 3938,
    "▁appends": 3939,
    "▁rotary": 3940,
    "▁divided": 3941,
    "▁loads": 3942,
    "▁ignore": 3943,
    "▁generator": 3944,
    "▁adjusts": 3945,
    "▁distill": 3946,
    "▁distillation": 3947,
    "▁contribute": 3948,
    "▁ensure": 3949,
    "▁statist": 3950,
    "▁statistical": 3951,
    "▁Pretra": 3952,
    "▁divers": 3953,
    "▁Eu": 3954,
    "▁Euc": 3955,
    "▁Eucli": 3956,
    "▁Euclide": 3957,
    "▁Euclidean": 3958,
    "▁squared": 3959,
    "▁gives": 3960,
    "▁incorporates": 3961,
    "▁loader": 3962,
    "▁loaded": 3963,
    "▁duplicates": 3964,
    "▁Unit": 3965,
    "▁rew": 3966,
    "▁rewrit": 3967,
    "▁rewriting": 3968,
    "▁referenced": 3969,
    "▁saf": 3970,
    "▁safet": 3971,
    "▁safety": 3972,
    "▁graphical": 3973,
    "▁balancing": 3974,
    "sing": 3975,
    "▁section": 3976,
    "▁appears": 3977,
    "acing": 3978,
    "locking": 3979,
    "▁align": 3980,
    "▁alignment": 3981,
    "▁division": 3982,
    "▁AN": 3983,
    "▁AND": 3984,
    "▁X": 3985,
    "▁XO": 3986,
    "▁XOR": 3987,
    "▁precedence": 3988,
    "▁kind": 3989,
    "▁keyword": 3990,
    "▁then": 3991,
    "▁last": 3992,
    "▁chil": 3993,
    "▁child": 3994,
    "▁children": 3995,
    "▁placed": 3996,
    "▁Time": 3997,
    "▁Space": 3998,
    "mpt": 3999,
    "▁growth": 4000,
    "▁takes": 4001,
    "▁regard": 4002,
    "▁regardless": 4003,
    "▁proportionally": 4004,
    "adr": 4005,
    "adratic": 4006,
    "▁exha": 4007,
    "▁exhaust": 4008,
    "▁exhausted": 4009,
    "▁half": 4010,
    "▁Sorting": 4011,
    "anging": 4012,
    "▁criterion": 4013,
    "▁Mer": 4014,
    "▁Merge": 4015,
    "▁quicksort": 4016,
    "▁Quic": 4017,
    "▁Quicksort": 4018,
    "▁piv": 4019,
    "▁pivot": 4020,
    "▁chooses": 4021,
    "▁attempt": 4022,
    "▁reusing": 4023,
    "▁Divi": 4024,
    "▁Divide": 4025,
    "▁Syntax": 4026,
    "▁semantics": 4027,
    "▁terminate": 4028,
    "▁understanding": 4029,
    "▁correcting": 4030,
    "▁Testing": 4031,
    "▁Integration": 4032,
    "▁combine": 4033,
    "▁blu": 4034,
    "▁bluep": 4035,
    "▁blueprint": 4036,
    "▁initialize": 4037,
    "▁reserves": 4038,
    "▁determined": 4039,
    "▁Garbage": 4040,
    "▁responding": 4041,
    "▁thems": 4042,
    "▁themsel": 4043,
    "▁themselves": 4044,
    "▁distributable": 4045,
    "▁installation": 4046,
    "▁Version": 4047,
    "▁managing": 4048,
    "▁hist": 4049,
    "▁history": 4050,
    "▁recorded": 4051,
    "▁sn": 4052,
    "▁snaps": 4053,
    "▁snapsh": 4054,
    "▁snapshot": 4055,
    "▁choosing": 4056,
    "▁imperfect": 4057,
    "▁sust": 4058,
    "▁sustainable": 4059,
    "▁recurring": 4060,
    "▁Vi": 4061,
    "▁View": 4062,
    "▁Control": 4063,
    "▁Controller": 4064,
    "▁retrieval": 4065,
    "▁graphs": 4066,
    "▁flex": 4067,
    "▁datagrams": 4068,
    "▁HTTPS": 4069,
    "▁boole": 4070,
    "▁booleans": 4071,
    "▁Deserialization": 4072,
    "▁serialized": 4073,
    "▁periods": 4074,
    "▁Parallelism": 4075,
    "▁indef": 4076,
    "▁indefinite": 4077,
    "▁indefinitely": 4078,
    "▁Synchronization": 4079,
    "▁checked": 4080,
    "▁typed": 4081,
    "▁conversions": 4082,
    "▁immutability": 4083,
    "▁Immutability": 4084,
    "▁anon": 4085,
    "▁anony": 4086,
    "▁anonym": 4087,
    "▁anonymous": 4088,
    "▁proceed": 4089,
    "▁synchronously": 4090,
    "▁completion": 4091,
    "▁Maintain": 4092,
    "▁Maintainability": 4093,
    "▁accompl": 4094,
    "▁accomplish": 4095,
    "▁Has": 4096,
    "▁Hashing": 4097,
    "▁salt": 4098,
    "▁parameterized": 4099,
    "▁minimize": 4100,
    "▁Overfitting": 4101,
    "▁specifically": 4102,
    "▁Under": 4103,
    "onn": 4104,
    "▁neur": 4105,
    "▁neuron": 4106,
    "▁introduces": 4107,
    "▁constructing": 4108,
    "▁Key": 4109,
    "▁Valu": 4110,
    "▁Value": 4111,
    "▁proj": 4112,
    "▁projections": 4113,
    "▁retrieve": 4114,
    "▁valued": 4115,
    "▁mapped": 4116,
    "▁reconstruct": 4117,
    "▁Encoding": 4118,
    "▁lengths": 4119,
    "▁likely": 4120,
    "▁Autoregressive": 4121,
    "▁Logits": 4122,
    "▁matr": 4123,
    "▁matrices": 4124,
    "▁Normalization": 4125,
    "▁Rot": 4126,
    "▁Rotary": 4127,
    "▁Position": 4128,
    "▁predictable": 4129,
    "▁reaches": 4130,
    "▁We": 4131,
    "▁propagate": 4132,
    "▁cli": 4133,
    "▁clipping": 4134,
    "▁unst": 4135,
    "▁unstable": 4136,
    "▁General": 4137,
    "▁Generalization": 4138,
    "▁outcome": 4139,
    "▁summ": 4140,
    "▁inside": 4141,
    "▁Multi": 4142,
    "▁Post": 4143,
    "▁optimize": 4144,
    "▁datasets": 4145,
    "▁mapping": 4146,
    "▁restored": 4147,
    "▁dropout": 4148,
    "▁Dropout": 4149,
    "▁reliance": 4150,
    "▁smooth": 4151,
    "▁multiplying": 4152,
    "ider": 4153,
    "ulations": 4154,
    "▁reserved": 4155,
    "▁purp": 4156,
    "▁purpos": 4157,
    "▁purposes": 4158,
    "▁start": 4159,
    "stru": 4160,
    "struction": 4161,
    "▁aug": 4162,
    "▁augment": 4163,
    "▁augmentation": 4164,
    "▁Shuffling": 4165,
    "▁decre": 4166,
    "▁decrease": 4167,
    "▁converg": 4168,
    "▁convergence": 4169,
    "▁curve": 4170,
    "▁explosion": 4171,
    "▁van": 4172,
    "▁vanish": 4173,
    "▁vanishing": 4174,
    "▁extremely": 4175,
    "▁rounding": 4176,
    "▁wide": 4177,
    "▁actively": 4178,
    "▁installing": 4179,
    "▁Logging": 4180,
    "▁continuously": 4181,
    "▁observes": 4182,
    "▁prog": 4183,
    "▁progression": 4184,
    "▁prepar": 4185,
    "▁preparing": 4186,
    "▁validated": 4187,
    "▁deliver": 4188,
    "▁delivering": 4189,
    "▁live": 4190,
    "▁asking": 4191,
    "▁headers": 4192,
    "▁indicating": 4193,
    "▁referential": 4194,
    "▁Referen": 4195,
    "▁Referential": 4196,
    "▁Cach": 4197,
    "▁Caching": 4198,
    "▁travel": 4199,
    "▁Through": 4200,
    "▁Throughput": 4201,
    "andw": 4202,
    "andwidth": 4203,
    "▁behind": 4204,
    "▁extension": 4205,
    "▁expect": 4206,
    "▁expectations": 4207,
    "▁DR": 4208,
    "▁DRY": 4209,
    "▁avoiding": 4210,
    "▁KI": 4211,
    "▁KIS": 4212,
    "▁KISS": 4213,
    "▁It": 4214,
    "▁YA": 4215,
    "▁YAG": 4216,
    "▁YAGN": 4217,
    "▁YAGNI": 4218,
    "eed": 4219,
    "▁Doc": 4220,
    "▁Document": 4221,
    "▁Documentation": 4222,
    "▁antic": 4223,
    "▁anticip": 4224,
    "▁anticipates": 4225,
    "▁Least": 4226,
    "▁outside": 4227,
    "▁Distributed": 4228,
    "▁Red": 4229,
    "▁Redundancy": 4230,
    "▁balanc": 4231,
    "▁balancer": 4232,
    "▁accepts": 4233,
    "▁having": 4234,
    "▁Inv": 4235,
    "▁Inversion": 4236,
    "▁trigger": 4237,
    "▁breakpoint": 4238,
    "▁simulates": 4239,
    "▁subst": 4240,
    "▁substit": 4241,
    "▁substitute": 4242,
    "▁showing": 4243,
    "▁merged": 4244,
    "▁retrieves": 4245,
    "▁integrates": 4246,
    "oning": 4247,
    "▁optimal": 4248,
    "▁Computational": 4249,
    "▁stud": 4250,
    "▁studies": 4251,
    "▁completen": 4252,
    "▁completeness": 4253,
    "▁calling": 4254,
    "▁frame": 4255,
    "▁releasing": 4256,
    "▁identifying": 4257,
    "▁writes": 4258,
    "▁syntactic": 4259,
    "▁syntactically": 4260,
    "▁imperative": 4261,
    "▁Imp": 4262,
    "▁Imper": 4263,
    "▁Imperative": 4264,
    "▁Declarative": 4265,
    "▁procedural": 4266,
    "▁Proced": 4267,
    "▁Procedural": 4268,
    "▁delegating": 4269,
    "▁fav": 4270,
    "▁favor": 4271,
    "▁favors": 4272,
    "▁hierarchies": 4273,
    "▁Public": 4274,
    "▁Priv": 4275,
    "▁Private": 4276,
    "▁Protected": 4277,
    "▁Impl": 4278,
    "▁Implic": 4279,
    "▁Implicit": 4280,
    "▁Explicit": 4281,
    "▁casting": 4282,
    "▁treats": 4283,
    "▁compos": 4284,
    "▁composite": 4285,
    "▁union": 4286,
    "▁insertion": 4287,
    "▁deque": 4288,
    "▁ended": 4289,
    "▁located": 4290,
    "gest": 4291,
    "▁visiting": 4292,
    "igations": 4293,
    "▁identical": 4294,
    "▁Nond": 4295,
    "▁Reprodu": 4296,
    "▁Reproduc": 4297,
    "▁Reproducibility": 4298,
    "▁Compat": 4299,
    "▁Compatibility": 4300,
    "▁extensibility": 4301,
    "▁Ext": 4302,
    "▁Extens": 4303,
    "▁Extensibility": 4304,
    "▁behaving": 4305,
    "▁switches": 4306,
    "app": 4307,
    "▁exponential": 4308,
    "▁Exponential": 4309,
    "▁press": 4310,
    "▁pressure": 4311,
    "▁times": 4312,
    "▁influences": 4313,
    "▁Confidentiality": 4314,
    "▁Integr": 4315,
    "▁Integrity": 4316,
    "▁three": 4317,
    "▁harm": 4318,
    "▁impact": 4319,
    "▁tric": 4320,
    "▁protections": 4321,
    "▁exchanged": 4322,
    "▁communicating": 4323,
    "▁certif": 4324,
    "▁certificate": 4325,
    "▁Contain": 4326,
    "▁Container": 4327,
    "▁Containerization": 4328,
    "▁templ": 4329,
    "▁virtualization": 4330,
    "▁Virtualization": 4331,
    "chest": 4332,
    "chestration": 4333,
    "▁zone": 4334,
    "▁reflect": 4335,
    "▁networked": 4336,
    "▁agree": 4337,
    "▁passing": 4338,
    "▁sending": 4339,
    "▁receiving": 4340,
    "▁produc": 4341,
    "▁producers": 4342,
    "▁publish": 4343,
    "▁subscribers": 4344,
    "▁broker": 4345,
    "▁sender": 4346,
    "▁immediately": 4347,
    "▁ong": 4348,
    "▁ongo": 4349,
    "▁ongoing": 4350,
    "▁corrective": 4351,
    "▁Corrective": 4352,
    "▁Adaptive": 4353,
    "fective": 4354,
    "▁preventive": 4355,
    "▁Prevent": 4356,
    "▁Preventive": 4357,
    "▁Agile": 4358,
    "▁feedback": 4359,
    "▁collaboration": 4360,
    "▁team": 4361,
    "▁priorit": 4362,
    "▁story": 4363,
    "▁description": 4364,
    "▁expressed": 4365,
    "▁issue": 4366,
    "▁estimation": 4367,
    "▁protot": 4368,
    "▁prototype": 4369,
    "▁viable": 4370,
    "▁accepting": 4371,
    "▁disad": 4372,
    "▁disadvant": 4373,
    "▁disadvantage": 4374,
    "▁accident": 4375,
    "▁Acc": 4376,
    "▁ess": 4377,
    "▁essential": 4378,
    "▁bet": 4379,
    "▁better": 4380,
    "▁High": 4381,
    "▁ways": 4382,
    "apsul": 4383,
    "apsulated": 4384,
    "▁owning": 4385,
    "▁Dup": 4386,
    "▁Duplic": 4387,
    "▁Duplicated": 4388,
    "▁Dead": 4389,
    "▁embed": 4390,
    "▁embedded": 4391,
    "▁REA": 4392,
    "▁READ": 4393,
    "▁READM": 4394,
    "▁README": 4395,
    "▁changelog": 4396,
    "▁leg": 4397,
    "▁legal": 4398,
    "▁gover": 4399,
    "▁governing": 4400,
    "▁redistribut": 4401,
    "▁redistribution": 4402,
    "etary": 4403,
    "▁reproducible": 4404,
    "▁locking": 4405,
    "▁arranges": 4406,
    "▁asp": 4407,
    "▁aspects": 4408,
    "▁violations": 4409,
    "▁linter": 4410,
    "▁issues": 4411,
    "▁Profil": 4412,
    "▁Profiling": 4413,
    "▁profiler": 4414,
    "▁bot": 4415,
    "▁bott": 4416,
    "▁bottl": 4417,
    "▁bottlen": 4418,
    "▁bottlenec": 4419,
    "▁bottleneck": 4420,
    "▁Opt": 4421,
    "▁Optim": 4422,
    "▁Optimization": 4423,
    "▁premature": 4424,
    "▁Premature": 4425,
    "▁optimizing": 4426,
    "▁Security": 4427,
    "▁misus": 4428,
    "▁misuse": 4429,
    "▁threats": 4430,
    "▁reproduction": 4431,
    "▁hot": 4432,
    "▁hotf": 4433,
    "▁hotfix": 4434,
    "▁quickly": 4435,
    "▁definitions": 4436,
    "▁truth": 4437,
    "itative": 4438,
    "▁Mutable": 4439,
    "▁subject": 4440,
    "▁interch": 4441,
    "▁interchange": 4442,
    "▁interchangeable": 4443,
    "▁replace": 4444,
    "▁testability": 4445,
    "▁Testability": 4446,
    "▁verified": 4447,
    "▁extensible": 4448,
    "▁Maintainable": 4449,
    "▁oth": 4450,
    "▁others": 4451,
    "▁down": 4452,
    "▁detects": 4453,
    "hand": 4454,
    "▁restoring": 4455,
    "▁usable": 4456,
    "llation": 4457,
    "▁completing": 4458,
    "▁subm": 4459,
    "▁PAT": 4460,
    "▁PATC": 4461,
    "▁PATCH": 4462,
    "▁conceptual": 4463,
    "▁credentials": 4464,
    "▁Schem": 4465,
    "▁Schema": 4466,
    "agination": 4467,
    "▁pages": 4468,
    "▁ord": 4469,
    "▁Rate": 4470,
    "rot": 4471,
    "rott": 4472,
    "rottling": 4473,
    "▁Cache": 4474,
    "▁cached": 4475,
    "▁underlying": 4476,
    "▁pooling": 4477,
    "▁destro": 4478,
    "▁destroy": 4479,
    "▁row": 4480,
    "▁association": 4481,
    "▁inner": 4482,
    "▁Durability": 4483,
    "▁restar": 4484,
    "▁restarts": 4485,
    "▁Isol": 4486,
    "▁Isolation": 4487,
    "▁transactions": 4488,
    "▁Atomicity": 4489,
    "▁indivis": 4490,
    "▁indivisible": 4491,
    "▁scan": 4492,
    "▁satisfying": 4493,
    "▁plan": 4494,
    "▁ORM": 4495,
    "▁builder": 4496,
    "▁manually": 4497,
    "▁particip": 4498,
    "▁election": 4499,
    "▁hear": 4500,
    "▁heart": 4501,
    "▁heartb": 4502,
    "▁heartbeat": 4503,
    "▁Serv": 4504,
    "▁Service": 4505,
    "▁centralized": 4506,
    "▁overloaded": 4507,
    "▁occurred": 4508,
    "▁disaster": 4509,
    "▁Dis": 4510,
    "▁Disaster": 4511,
    "▁disrup": 4512,
    "▁disruptive": 4513,
    "▁corruption": 4514,
    "▁resum": 4515,
    "▁severity": 4516,
    "▁Struct": 4517,
    "▁Structured": 4518,
    "▁alert": 4519,
    "▁incident": 4520,
    "mort": 4521,
    "mortem": 4522,
    "▁reviews": 4523,
    "▁assur": 4524,
    "▁assurance": 4525,
    "▁measurements": 4526,
    "▁targeted": 4527,
    "▁alongside": 4528,
    "▁Be": 4529,
    "▁stakehold": 4530,
    "▁stakeholders": 4531,
    "▁Man": 4532,
    "▁Manual": 4533,
    "▁scen": 4534,
    "▁scenari": 4535,
    "▁orac": 4536,
    "▁oracle": 4537,
    "uz": 4538,
    "uzz": 4539,
    "▁discover": 4540,
    "▁cra": 4541,
    "▁cras": 4542,
    "▁crashes": 4543,
    "▁sanity": 4544,
    "▁repeatable": 4545,
    "▁flak": 4546,
    "▁flaky": 4547,
    "gnitive": 4548,
    "▁humans": 4549,
    "▁Program": 4550,
    "▁Run": 4551,
    "▁Runtime": 4552,
    "▁reporting": 4553,
    "▁la": 4554,
    "▁terminal": 4555,
    "▁operates": 4556,
    "▁Session": 4557,
    "▁personal": 4558,
    "▁minimization": 4559,
    "▁collect": 4560,
    "▁retaining": 4561,
    "▁adm": 4562,
    "▁admin": 4563,
    "▁administ": 4564,
    "▁administr": 4565,
    "▁administrative": 4566,
    "▁activity": 4567,
    "▁compli": 4568,
    "▁compliance": 4569,
    "▁standards": 4570,
    "▁policies": 4571,
    "▁adapts": 4572,
    "▁bar": 4573,
    "▁barri": 4574,
    "▁barrier": 4575,
    "▁specialize": 4576,
    "▁excl": 4577,
    "▁exclus": 4578,
    "▁achieved": 4579,
    "▁layered": 4580,
    "agonal": 4581,
    "▁core": 4582,
    "▁natur": 4583,
    "▁naturally": 4584,
    "▁bel": 4585,
    "▁belong": 4586,
    "▁ful": 4587,
    "▁achieve": 4588,
    "▁UML": 4589,
    "▁simplified": 4590,
    "▁inline": 4591,
    "▁docst": 4592,
    "▁docstring": 4593,
    "▁documenting": 4594,
    "▁deprecation": 4595,
    "▁Deprecation": 4596,
    "▁discouraged": 4597,
    "▁obsole": 4598,
    "▁obsolete": 4599,
    "▁enab": 4600,
    "▁enabled": 4601,
    "▁Fe": 4602,
    "▁Feature": 4603,
    "▁canary": 4604,
    "▁Can": 4605,
    "▁Canary": 4606,
    "▁blue": 4607,
    "▁Blue": 4608,
    "▁switched": 4609,
    "▁Rollback": 4610,
    "▁router": 4611,
    "▁destination": 4612,
    "▁destin": 4613,
    "▁destinations": 4614,
    "▁intermedi": 4615,
    "▁intermediary": 4616,
    "▁Packet": 4617,
    "▁OS": 4618,
    "▁OSI": 4619,
    "▁payload": 4620,
    "▁hands": 4621,
    "▁handsha": 4622,
    "▁handshake": 4623,
    "▁Conn": 4624,
    "▁Connection": 4625,
    "▁finding": 4626,
    "▁localhost": 4627,
    "▁Localhost": 4628,
    "▁hostn": 4629,
    "▁hostname": 4630,
    "▁NAT": 4631,
    "▁MA": 4632,
    "▁MAC": 4633,
    "▁AR": 4634,
    "▁ARP": 4635,
    "▁forwarded": 4636,
    "▁switching": 4637,
    "▁interpret": 4638,
    "▁exclu": 4639,
    "▁fewer": 4640,
    "▁UT": 4641,
    "▁UTF": 4642,
    "▁8": 4643,
    "▁capable": 4644,
    "▁AS": 4645,
    "▁ASCI": 4646,
    "▁ASCII": 4647,
    "▁eight": 4648,
    "▁kilobyte": 4649,
    "▁10": 4650,
    "▁102": 4651,
    "▁1024": 4652,
    "▁meg": 4653,
    "▁megab": 4654,
    "▁megabyte": 4655,
    "▁elect": 4656,
    "▁electron": 4657,
    "▁electronically": 4658,
    "▁shifting": 4659,
    "▁endianness": 4660,
    "▁End": 4661,
    "▁Endian": 4662,
    "▁Endianness": 4663,
    "▁little": 4664,
    "▁lowest": 4665,
    "▁Integer": 4666,
    "▁representable": 4667,
    "▁arrange": 4668,
    "▁multipl": 4669,
    "▁multiplies": 4670,
    "▁exchanges": 4671,
    "▁ax": 4672,
    "casting": 4673,
    "▁expanding": 4674,
    "▁contained": 4675,
    "▁underparameterized": 4676,
    "▁overparameterized": 4677,
    "▁strictly": 4678,
    "▁extraction": 4679,
    "▁dimensionality": 4680,
    "▁Dimension": 4681,
    "▁Dimensionality": 4682,
    "▁reduction": 4683,
    "▁scale": 4684,
    "▁hyperpar": 4685,
    "▁hyperparam": 4686,
    "▁hyperparameters": 4687,
    "▁imb": 4688,
    "▁imbal": 4689,
    "▁imbalance": 4690,
    "▁substantially": 4691,
    "▁Supervised": 4692,
    "infor": 4693,
    "inforce": 4694,
    "inforcement": 4695,
    "▁Classification": 4696,
    "ibration": 4697,
    "▁recall": 4698,
    "▁balances": 4699,
    "plex": 4700,
    "plexity": 4701,
    "▁average": 4702,
    "▁Negative": 4703,
    "▁sized": 4704,
    "▁encoura": 4705,
    "▁encourage": 4706,
    "▁Random": 4707,
    "▁repet": 4708,
    "▁repetition": 4709,
    "▁penalty": 4710,
    "▁generating": 4711,
    "▁Generation": 4712,
    "▁supplies": 4713,
    "▁exposure": 4714,
    "▁sli": 4715,
    "▁sliding": 4716,
    "▁Absolute": 4717,
    "▁ang": 4718,
    "▁influence": 4719,
    "▁calculation": 4720,
    "▁attend": 4721,
    "▁reshap": 4722,
    "▁reshaping": 4723,
    "▁portions": 4724,
    "▁transposition": 4725,
    "▁concatenation": 4726,
    "▁Conc": 4727,
    "▁Concatenation": 4728,
    "▁sublay": 4729,
    "▁sublayers": 4730,
    "▁subtra": 4731,
    "▁subtraction": 4732,
    "▁als": 4733,
    "▁also": 4734,
    "▁cent": 4735,
    "▁centers": 4736,
    "▁gating": 4737,
    "▁entered": 4738,
    "▁built": 4739,
    "▁calculates": 4740,
    "▁accum": 4741,
    "▁accumulation": 4742,
    "▁correlations": 4743,
    "▁evaluated": 4744,
    "▁manageable": 4745,
    "▁uncom": 4746,
    "▁uncommon": 4747,
    "▁words": 4748,
    "▁fill": 4749,
    "▁fills": 4750,
    "▁unused": 4751,
    "▁BOS": 4752,
    "▁shifted": 4753,
    "▁increase": 4754,
    "▁processors": 4755,
    "▁acce": 4756,
    "▁acceler": 4757,
    "▁accelerate": 4758,
    "▁mix": 4759,
    "▁quantization": 4760,
    "▁pruning": 4761,
    "▁Stream": 4762,
    "▁Streaming": 4763,
    "▁partial": 4764,
    "▁compared": 4765,
    "▁substantial": 4766,
    "▁LL": 4767,
    "▁LLM": 4768,
    "▁Pretraining": 4769,
    "hetic": 4770,
    "▁diversity": 4771,
    "▁Dataset": 4772,
    "▁wording": 4773,
    "▁contam": 4774,
    "▁contamination": 4775,
    "formed": 4776,
    "▁masking": 4777,
    "▁infin": 4778,
    "▁infinity": 4779,
    "▁saturation": 4780,
    "▁preference": 4781,
    "▁LM": 4782,
    "▁equal": 4783,
    "▁grad": 4784,
    "▁torch": 4785,
    "▁dict": 4786,
    "▁externally": 4787,
    "▁procedure": 4788,
    "▁retains": 4789,
    "▁recently": 4790,
    "▁earliest": 4791,
    "▁internally": 4792,
    "▁lifetimes": 4793,
    "▁asymmetric": 4794,
    "▁datab": 4795,
    "▁databases": 4796,
    "▁schemas": 4797,
    "▁denormalization": 4798,
    "▁separating": 4799,
    "▁pending": 4800,
    "▁levels": 4801,
    "▁deeply": 4802,
    "▁globally": 4803,
    "▁argmax": 4804,
    "▁always": 4805,
    "▁candidates": 4806,
    "▁convolution": 4807,
    "▁sample": 4808,
    "▁broader": 4809,
    "▁whereas": 4810,
    "▁desirable": 4811,
    "▁measured": 4812,
    "▁memorization": 4813,
    "▁derives": 4814,
    "▁categories": 4815,
    "▁newly": 4816,
    "▁alread": 4817,
    "▁already": 4818,
    "▁stoch": 4819,
    "▁stochast": 4820,
    "▁stochastic": 4821,
    "▁offline": 4822,
    "▁delivers": 4823,
    "▁serving": 4824,
    "▁owners": 4825,
    "▁ownership": 4826,
    "▁Aggreg": 4827,
    "▁Aggregation": 4828,
    "▁dang": 4829,
    "▁dangling": 4830,
    "▁unre": 4831,
    "▁shal": 4832,
    "▁shallow": 4833,
    "▁Compile": 4834,
    "▁resolved": 4835,
    "▁specialized": 4836,
    "▁implements": 4837,
    "▁topic": 4838,
    "▁consumer": 4839,
    "▁polling": 4840,
    "▁Pol": 4841,
    "▁Polling": 4842,
    "▁exists": 4843,
    "▁Ret": 4844,
    "▁Retry": 4845,
    "▁explain": 4846,
    "▁Logs": 4847,
    "▁Smo": 4848,
    "▁Smoke": 4849,
    "▁0": 4850,
    "seud": 4851,
    "seudoc": 4852,
    "seudocode": 4853,
    "▁terminating": 4854,
    "▁subtree": 4855,
    "▁entirely": 4856,
    "▁mutex": 4857,
    "▁arranged": 4858,
    "▁reasonably": 4859,
    "▁recursively": 4860,
    "▁sorts": 4861,
    "▁finish": 4862,
    "▁promise": 4863,
    "▁blocking": 4864,
    "▁deployed": 4865,
    "▁nonf": 4866,
    "▁nonfunctional": 4867,
    "▁determining": 4868,
    "▁acceptably": 4869,
    "▁staging": 4870,
    "emb": 4871,
    "embly": 4872,
    "▁assignment": 4873,
    "▁enumer": 4874,
    "▁enumeration": 4875,
    "▁iterable": 4876,
    "▁incrementally": 4877,
    "▁ans": 4878,
    "▁answ": 4879,
    "▁br": 4880,
    "▁brute": 4881,
    "▁force": 4882,
    "▁approximate": 4883,
    "▁subclasses": 4884,
    "▁overr": 4885,
    "▁overridden": 4886,
    "▁sem": 4887,
    "▁semap": 4888,
    "▁semaph": 4889,
    "▁semaphore": 4890,
    "▁critical": 4891,
    "▁interfe": 4892,
    "▁interfere": 4893,
    "▁RP": 4894,
    "▁RPC": 4895,
    "▁though": 4896,
    "▁webh": 4897,
    "▁webho": 4898,
    "▁webhook": 4899,
    "▁conform": 4900,
    "▁conforms": 4901,
    "▁giving": 4902,
    "▁corrupted": 4903,
    "▁capabilities": 4904,
    "▁delay": 4905,
    "▁delays": 4906,
    "▁ben": 4907,
    "chm": 4908,
    "chmar": 4909,
    "chmarking": 4910,
    "▁profile": 4911,
    "▁callbacks": 4912,
    "blocking": 4913,
    "▁avoids": 4914,
    "entran": 4915,
    "entrancy": 4916,
    "▁move": 4917,
    "▁surf": 4918,
    "▁surface": 4919,
    "▁sessions": 4920,
    "▁pin": 4921,
    "▁pinning": 4922,
    "▁lockfile": 4923,
    "▁preferen": 4924,
    "▁preferences": 4925,
    "▁parsing": 4926,
    "ulo": 4927,
    "▁Bitwise": 4928,
    "▁circu": 4929,
    "▁circuit": 4930,
    "▁Oper": 4931,
    "▁Operator": 4932,
    "▁associat": 4933,
    "▁associativ": 4934,
    "▁associativity": 4935,
    "▁extracts": 4936,
    "▁optional": 4937,
    "▁nullable": 4938,
    "▁correlation": 4939,
    "▁affects": 4940,
    "▁UI": 4941,
    "active": 4942,
    "▁automat": 4943,
    "▁automaton": 4944,
    "▁amb": 4945,
    "▁ambig": 4946,
    "▁ambigu": 4947,
    "▁ambiguity": 4948,
    "▁preconditions": 4949,
    "▁postconditions": 4950,
    "▁invariants": 4951,
    "▁corner": 4952,
    "▁happy": 4953,
    "▁shut": 4954,
    "▁shutd": 4955,
    "▁shutdown": 4956,
    "▁RA": 4957,
    "▁RAI": 4958,
    "▁RAII": 4959,
    "zy": 4960,
    "ager": 4961,
    "▁stage": 4962,
    "▁ET": 4963,
    "▁ETL": 4964,
    "▁unch": 4965,
    "▁unchanged": 4966,
    "▁let": 4967,
    "▁letter": 4968,
    "▁pun": 4969,
    "▁punct": 4970,
    "▁punctu": 4971,
    "▁punctuation": 4972,
    "▁mark": 4973,
    "▁whit": 4974,
    "▁whites": 4975,
    "▁whitespace": 4976,
    "▁decl": 4977,
    "▁declare": 4978,
    "▁declared": 4979,
    "▁continuation": 4980,
    "▁Algorithmic": 4981,
    "▁asympt": 4982,
    "▁asymptot": 4983,
    "▁asymptotic": 4984,
    "▁Constant": 4985,
    "▁logarithmic": 4986,
    "▁Logarithm": 4987,
    "▁Logarithmic": 4988,
    "▁slow": 4989,
    "▁slowly": 4990,
    "▁quadratic": 4991,
    "▁Quadratic": 4992,
    "▁elim": 4993,
    "▁elimin": 4994,
    "▁eliminating": 4995,
    "▁remaining": 4996,
    "▁arranging": 4997,
    "▁translated": 4998,
    "▁Semantics": 4999
}