{
    "w": 0,
    "h": 1,
    "a": 2,
    "t": 3,
    "i": 4,
    "s": 5,
    "e": 6,
    "c": 7,
    "p": 8,
    "l": 9,
    "o": 10,
    "f": 11,
    "n": 12,
    "d": 13,
    "?": 14,
    ".": 15,
    "g": 16,
    "m": 17,
    "r": 18,
    "u": 19,
    "k": 20,
    "b": 21,
    "z": 22,
    "v": 23,
    "y": 24,
    "j": 25,
    "x": 26,
    "nt": 27,
    "of": 28,
    "th": 29,
    "is": 30,
    "the": 31,
    "ha": 32,
    "wha": 33,
    "what": 34,
    "ca": 35,
    "in": 36,
    "al": 37,
    "co": 38,
    "it": 39,
    "ital": 40,
    "ine": 41,
    "cap": 42,
    "capital": 43,
    "cont": 44,
    "contine": 45,
    "continent": 46,
    "ia": 47,
    "er": 48,
    "ro": 49,
    "an": 50,
    "ica": 51,
    "pe": 52,
    "eu": 53,
    "euro": 54,
    "europe": 55,
    "sia": 56,
    "am": 57,
    "and": 58,
    "ra": 59,
    "fr": 60,
    "land": 61,
    "afr": 62,
    "africa": 63,
    "asia": 64,
    "amer": 65,
    "america": 66,
    "en": 67,
    "us": 68,
    "tu": 69,
    "re": 70,
    "el": 71,
    "ar": 72,
    "ger": 73,
    "ne": 74,
    "or": 75,
    "ce": 76,
    "il": 77,
    "sa": 78,
    "geria": 79,
    "ou": 80,
    "ad": 81,
    "eg": 82,
    "dia": 83,
    "me": 84,
    "sou": 85,
    "south": 86,
    "ba": 87,
    "wa": 88,
    "ja": 89,
    "bia": 90,
    "tun": 91,
    "tunis": 92,
    "ch": 93,
    "sw": 94,
    "den": 95,
    "to": 96,
    "bra": 97,
    "gi": 98,
    "ai": 99,
    "aus": 100,
    "aust": 101,
    "austr": 102,
    "mex": 103,
    "mexi": 104,
    "mexico": 105,
    "ina": 106,
    "new": 107,
    "per": 108,
    "peru": 109,
    "braz": 110,
    "brazil": 111,
    "vi": 112,
    "algeria": 113,
    "italy": 114,
    "southafrica": 115,
    "nor": 116,
    "norwa": 117,
    "norway": 118,
    "lo": 119,
    "ko": 120,
    "ni": 121,
    "nigeria": 122,
    "bu": 123,
    "can": 124,
    "ta": 125,
    "thai": 126,
    "thailand": 127,
    "ber": 128,
    "kar": 129,
    "sau": 130,
    "saudia": 131,
    "saudiara": 132,
    "saudiarabia": 133,
    "ri": 134,
    "ire": 135,
    "lin": 136,
    "sen": 137,
    "seneg": 138,
    "senegal": 139,
    "usa": 140,
    "rus": 141,
    "mo": 142,
    "fin": 143,
    "finland": 144,
    "els": 145,
    "eth": 146,
    "ethi": 147,
    "ethio": 148,
    "ethiop": 149,
    "ethiopia": 150,
    "egy": 151,
    "egyp": 152,
    "egypt": 153,
    "tur": 154,
    "turk": 155,
    "turke": 156,
    "turkey": 157,
    "gre": 158,
    "gree": 159,
    "greece": 160,
    "uk": 161,
    "ukra": 162,
    "ukraine": 163,
    "tunisia": 164,
    "india": 165,
    "chil": 166,
    "chile": 167,
    "go": 168,
    "li": 169,
    "lim": 170,
    "lima": 171,
    "swe": 172,
    "sweden": 173,
    "po": 174,
    "poland": 175,
    "vie": 176,
    "viet": 177,
    "vietn": 178,
    "vietnam": 179,
    "algi": 180,
    "algier": 181,
    "algiers": 182,
    "denm": 183,
    "denmar": 184,
    "denmark": 185,
    "isra": 186,
    "israel": 187,
    "por": 188,
    "portu": 189,
    "portug": 190,
    "portugal": 191,
    "bo": 192,
    "pre": 193,
    "pret": 194,
    "pretor": 195,
    "pretoria": 196,
    "cu": 197,
    "cuba": 198,
    "southko": 199,
    "southkore": 200,
    "southkorea": 201,
    "jap": 202,
    "japan": 203,
    "ky": 204,
    "abu": 205,
    "abuja": 206,
    "canad": 207,
    "canada": 208,
    "austral": 209,
    "australia": 210,
    "oce": 211,
    "ocean": 212,
    "oceania": 213,
    "ind": 214,
    "indo": 215,
    "indone": 216,
    "indonesia": 217,
    "riy": 218,
    "riyad": 219,
    "riyadh": 220,
    "colo": 221,
    "colom": 222,
    "colombia": 223,
    "arg": 224,
    "arge": 225,
    "argent": 226,
    "argentina": 227,
    "newz": 228,
    "newze": 229,
    "newzeal": 230,
    "newzealand": 231,
    "gto": 232,
    "gton": 233,
    "da": 234,
    "dakar": 235,
    "fran": 236,
    "france": 237,
    "russia": 238,
    "ken": 239,
    "keny": 240,
    "kenya": 241,
    "hels": 242,
    "helsin": 243,
    "helsink": 244,
    "helsinki": 245,
    "moro": 246,
    "moroc": 247,
    "morocco": 248,
    "sp": 249,
    "spa": 250,
    "spain": 251,
    "china": 252,
    "cai": 253,
    "cairo": 254,
    "bel": 255,
    "belgi": 256,
    "belgiu": 257,
    "belgium": 258,
    "nethe": 259,
    "nether": 260,
    "netherland": 261,
    "netherlands": 262,
    "austria": 263,
    "athe": 264,
    "athen": 265,
    "athens": 266,
    "ireland": 267,
    "germ": 268,
    "german": 269,
    "germany": 270,
    "swit": 271,
    "switz": 272,
    "switzer": 273,
    "switzerland": 274,
    "newd": 275,
    "newdel": 276,
    "newdelh": 277,
    "newdelhi": 278,
    "sant": 279,
    "santia": 280,
    "santiago": 281,
    "sto": 282,
    "stoc": 283,
    "stock": 284,
    "stockh": 285,
    "stockho": 286,
    "stockhol": 287,
    "stockholm": 288,
    "bras": 289,
    "brasil": 290,
    "brasilia": 291,
    "war": 292,
    "warsa": 293,
    "warsaw": 294,
    "han": 295,
    "hano": 296,
    "hanoi": 297,
    "cope": 298,
    "copen": 299,
    "copenha": 300,
    "copenhag": 301,
    "copenhagen": 302,
    "rome": 303,
    "jer": 304,
    "jerus": 305,
    "jerusal": 306,
    "jerusale": 307,
    "jerusalem": 308,
    "lis": 309,
    "lisbo": 310,
    "lisbon": 311,
    "hav": 312,
    "havan": 313,
    "havana": 314,
    "os": 315,
    "oslo": 316,
    "se": 317,
    "seou": 318,
    "seoul": 319,
    "toky": 320,
    "tokyo": 321,
    "ot": 322,
    "otta": 323,
    "ottawa": 324,
    "ban": 325,
    "bang": 326,
    "bangko": 327,
    "bangkok": 328,
    "canber": 329,
    "canberra": 330,
    "jakar": 331,
    "jakarta": 332,
    "bogo": 333,
    "bogota": 334,
    "mexicoc": 335,
    "mexicocit": 336,
    "mexicocity": 337,
    "buen": 338,
    "bueno": 339,
    "buenosa": 340,
    "buenosaire": 341,
    "buenosaires": 342,
    "wel": 343,
    "wellin": 344,
    "wellington": 345,
    "par": 346,
    "paris": 347,
    "was": 348,
    "wash": 349,
    "washin": 350,
    "washington": 351,
    "mos": 352,
    "mosco": 353,
    "moscow": 354,
    "nai": 355,
    "nairo": 356,
    "nairob": 357,
    "nairobi": 358,
    "raba": 359,
    "rabat": 360,
    "add": 361,
    "addis": 362,
    "addisa": 363,
    "addisaba": 364,
    "addisababa": 365,
    "mad": 366,
    "madri": 367,
    "madrid": 368,
    "be": 369,
    "bei": 370,
    "beij": 371,
    "beijin": 372,
    "beijing": 373,
    "brus": 374,
    "bruss": 375,
    "brussels": 376,
    "ank": 377,
    "anka": 378,
    "ankara": 379,
    "ams": 380,
    "amst": 381,
    "amster": 382,
    "amsterd": 383,
    "amsterdam": 384,
    "vien": 385,
    "vienn": 386,
    "vienna": 387,
    "du": 388,
    "dub": 389,
    "dublin": 390,
    "kyi": 391,
    "kyiv": 392,
    "berlin": 393,
    "bern": 394
}