{
    "T": 0,
    "h": 1,
    "e": 2,
    "m": 3,
    "o": 4,
    "r": 5,
    "n": 6,
    "i": 7,
    "g": 8,
    "w": 9,
    "a": 10,
    "s": 11,
    "q": 12,
    "u": 13,
    "t": 14,
    "d": 15,
    "l": 16,
    "p": 17,
    "y": 18,
    ".": 19,
    "A": 20,
    "f": 21,
    "b": 22,
    "v": 23,
    "P": 24,
    "k": 25,
    "c": 26,
    ",": 27,
    "L": 28,
    "x": 29,
    "W": 30,
    "E": 31,
    "S": 32,
    "I": 33,
    "O": 34,
    "M": 35,
    "C": 36,
    "H": 37,
    "j": 38,
    "G": 39,
    "N": 40,
    "z": 41,
    "D": 42,
    "F": 43,
    "R": 44,
    "\"": 45,
    "U": 46,
    "B": 47,
    "an": 48,
    "er": 49,
    "in": 50,
    "es": 51,
    "on": 52,
    "at": 53,
    "en": 54,
    "or": 55,
    "th": 56,
    "and": 57,
    "re": 58,
    "ion": 59,
    "ing": 60,
    "le": 61,
    "al": 62,
    "ro": 63,
    "to": 64,
    "ar": 65,
    "ed": 66,
    "ent": 67,
    "ic": 68,
    "the": 69,
    "is": 70,
    "de": 71,
    "it": 72,
    "ation": 73,
    "ct": 74,
    "co": 75,
    "can": 76,
    "us": 77,
    "ers": 78,
    "un": 79,
    "as": 80,
    "pro": 81,
    "of": 82,
    "ex": 83,
    "ch": 84,
    "be": 85,
    "com": 86,
    "if": 87,
    "he": 88,
    "for": 89,
    "ra": 90,
    "ce": 91,
    "im": 92,
    "st": 93,
    "res": 94,
    "pl": 95,
    "ces": 96,
    "mo": 97,
    "ve": 98,
    "op": 99,
    "ge": 100,
    "ul": 101,
    "pe": 102,
    "ut": 103,
    "con": 104,
    "me": 105,
    "qu": 106,
    "iff": 107,
    "ma": 108,
    "il": 109,
    "iv": 110,
    "ang": 111,
    "ow": 112,
    "all": 113,
    "ur": 114,
    "ta": 115,
    "diff": 116,
    "The": 117,
    "ople": 118,
    "oo": 119,
    "wh": 120,
    "ne": 121,
    "use": 122,
    "ions": 123,
    "wor": 124,
    "id": 125,
    "ts": 126,
    "ab": 127,
    "ver": 128,
    "erent": 129,
    "form": 130,
    "are": 131,
    "se": 132,
    "ter": 133,
    "ies": 134,
    "und": 135,
    "comp": 136,
    "different": 137,
    "so": 138,
    "ents": 139,
    "iz": 140,
    "mode": 141,
    "model": 142,
    "arn": 143,
    "ure": 144,
    "that": 145,
    "ence": 146,
    "rain": 147,
    "ide": 148,
    "ms": 149,
    "ities": 150,
    "cts": 151,
    "ther": 152,
    "ations": 153,
    "cess": 154,
    "man": 155,
    "du": 156,
    "ds": 157,
    "inform": 158,
    "information": 159,
    "angu": 160,
    "angua": 161,
    "learn": 162,
    "tok": 163,
    "token": 164,
    "ir": 165,
    "ri": 166,
    "people": 167,
    "ks": 168,
    "we": 169,
    "par": 170,
    "ate": 171,
    "est": 172,
    "su": 173,
    "ort": 174,
    "comm": 175,
    "pre": 176,
    "raining": 177,
    "langua": 178,
    "ding": 179,
    "gan": 180,
    "tain": 181,
    "exp": 182,
    "ans": 183,
    "je": 184,
    "port": 185,
    "training": 186,
    "ig": 187,
    "ly": 188,
    "te": 189,
    "ci": 190,
    "ant": 191,
    "process": 192,
    "dic": 193,
    "qui": 194,
    "erst": 195,
    "erstand": 196,
    "ay": 197,
    "act": 198,
    "organ": 199,
    "prov": 200,
    "commun": 201,
    "language": 202,
    "predic": 203,
    "predict": 204,
    "Pe": 205,
    "People": 206,
    "ad": 207,
    "des": 208,
    "mall": 209,
    "requi": 210,
    "one": 211,
    "understand": 212,
    "plan": 213,
    "its": 214,
    "produ": 215,
    "ste": 216,
    "many": 217,
    "hel": 218,
    "other": 219,
    "bje": 220,
    "work": 221,
    "allow": 222,
    "communic": 223,
    "ges": 224,
    "may": 225,
    "tex": 226,
    "ble": 227,
    "used": 228,
    "tern": 229,
    "ical": 230,
    "gra": 231,
    "ser": 232,
    "ap": 233,
    "desc": 234,
    "descri": 235,
    "small": 236,
    "round": 237,
    "ho": 238,
    "her": 239,
    "pers": 240,
    "no": 241,
    "ult": 242,
    "king": 243,
    "able": 244,
    "ile": 245,
    "per": 246,
    "ist": 247,
    "ev": 248,
    "pen": 249,
    "how": 250,
    "ave": 251,
    "allows": 252,
    "text": 253,
    "pat": 254,
    "pattern": 255,
    "patterns": 256,
    "organiz": 257,
    "ll": 258,
    "am": 259,
    "help": 260,
    "dat": 261,
    "oft": 262,
    "ud": 263,
    "by": 264,
    "choo": 265,
    "person": 266,
    "not": 267,
    "fro": 268,
    "from": 269,
    "cl": 270,
    "sy": 271,
    "syste": 272,
    "activ": 273,
    "ine": 274,
    "ood": 275,
    "wi": 276,
    "with": 277,
    "ity": 278,
    "have": 279,
    "vel": 280,
    "pla": 281,
    "chan": 282,
    "change": 283,
    "ures": 284,
    "sol": 285,
    "str": 286,
    "pres": 287,
    "meas": 288,
    "measure": 289,
    "os": 290,
    "ach": 291,
    "entif": 292,
    "usef": 293,
    "useful": 294,
    "mor": 295,
    "their": 296,
    "ail": 297,
    "ill": 298,
    "tains": 299,
    "ather": 300,
    "tim": 301,
    "icult": 302,
    "tas": 303,
    "tasks": 304,
    "ater": 305,
    "hu": 306,
    "cle": 307,
    "bet": 308,
    "around": 309,
    "also": 310,
    "ments": 311,
    "oc": 312,
    "bjects": 313,
    "ps": 314,
    "chang": 315,
    "import": 316,
    "important": 317,
    "quest": 318,
    "ides": 319,
    "sim": 320,
    "proble": 321,
    "our": 322,
    "ame": 323,
    "exam": 324,
    "uring": 325,
    "comput": 326,
    "serv": 327,
    "depen": 328,
    "when": 329,
    "data": 330,
    "net": 331,
    "ices": 332,
    "tokens": 333,
    "into": 334,
    "words": 335,
    "uld": 336,
    "ning": 337,
    "et": 338,
    "ty": 339,
    "stud": 340,
    "boo": 341,
    "moun": 342,
    "riv": 343,
    "very": 344,
    "tak": 345,
    "time": 346,
    "requires": 347,
    "ract": 348,
    "comple": 349,
    "cis": 350,
    "ress": 351,
    "understanding": 352,
    "sent": 353,
    "water": 354,
    "human": 355,
    "av": 356,
    "while": 357,
    "rel": 358,
    "ated": 359,
    "lar": 360,
    "part": 361,
    "activities": 362,
    "spe": 363,
    "provide": 364,
    "idence": 365,
    "changed": 366,
    "ome": 367,
    "Co": 368,
    "mm": 369,
    "ideas": 370,
    "describe": 371,
    "stru": 372,
    "struct": 373,
    "repres": 374,
    "dit": 375,
    "plic": 376,
    "div": 377,
    "has": 378,
    "fin": 379,
    "cor": 380,
    "ular": 381,
    "od": 382,
    "ph": 383,
    "processes": 384,
    "Re": 385,
    "new": 386,
    "dis": 387,
    "ives": 388,
    "ters": 389,
    "usto": 390,
    "oney": 391,
    "sho": 392,
    "should": 393,
    "wer": 394,
    "em": 395,
    "igh": 396,
    "out": 397,
    "sur": 398,
    "sever": 399,
    "several": 400,
    "schoo": 401,
    "school": 402,
    "takes": 403,
    "becom": 404,
    "exper": 405,
    "usu": 406,
    "usuall": 407,
    "usually": 408,
    "ating": 409,
    "difficult": 410,
    "ose": 411,
    "tr": 412,
    "need": 413,
    "row": 414,
    "avail": 415,
    "available": 416,
    "betwe": 417,
    "between": 418,
    "It": 419,
    "ates": 420,
    "large": 421,
    "fa": 422,
    "systems": 423,
    "contains": 424,
    "evidence": 425,
    "over": 426,
    "Some": 427,
    "devel": 428,
    "develop": 429,
    "sp": 430,
    "ol": 431,
    "communicate": 432,
    "cial": 433,
    "ask": 434,
    "context": 435,
    "ple": 436,
    "require": 437,
    "questions": 438,
    "oth": 439,
    "explan": 440,
    "solut": 441,
    "mak": 442,
    "such": 443,
    "what": 444,
    "um": 445,
    "les": 446,
    "measured": 447,
    "ong": 448,
    "itu": 449,
    "impro": 450,
    "improve": 451,
    "exampl": 452,
    "examples": 453,
    "perform": 454,
    "main": 455,
    "ib": 456,
    "resour": 457,
    "resources": 458,
    "sk": 459,
    "sci": 460,
    "ese": 461,
    "alu": 462,
    "way": 463,
    "ac": 464,
    "cre": 465,
    "products": 466,
    "web": 467,
    "learning": 468,
    "ences": 469,
    "conver": 470,
    "converts": 471,
    "identif": 472,
    "identifi": 473,
    "vect": 474,
    "vector": 475,
    "ord": 476,
    "ustom": 477,
    "ustomers": 478,
    "money": 479,
    "organization": 480,
    "pect": 481,
    "ize": 482,
    "ree": 483,
    "soft": 484,
    "ight": 485,
    "uil": 486,
    "uilding": 487,
    "rout": 488,
    "ines": 489,
    "book": 490,
    "read": 491,
    "describ": 492,
    "every": 493,
    "earn": 494,
    "ractic": 495,
    "ractice": 496,
    "do": 497,
    "does": 498,
    "become": 499,
    "ading": 500,
    "Pro": 501,
    "making": 502,
    "mis": 503,
    "those": 504,
    "ag": 505,
    "lif": 506,
    "life": 507,
    "aning": 508,
    "amoun": 509,
    "gre": 510,
    "reg": 511,
    "regions": 512,
    "ld": 513,
    "Ear": 514,
    "Earth": 515,
    "ves": 516,
    "produces": 517,
    "cy": 518,
    "day": 519,
    "ons": 520,
    "oce": 521,
    "vers": 522,
    "weather": 523,
    "env": 524,
    "envir": 525,
    "environ": 526,
    "perat": 527,
    "perature": 528,
    "fe": 529,
    "istor": 530,
    "events": 531,
    "objects": 532,
    "ign": 533,
    "ific": 534,
    "thro": 535,
    "throu": 536,
    "throug": 537,
    "cities": 538,
    "rivers": 539,
    "bec": 540,
    "beca": 541,
    "because": 542,
    "ided": 543,
    "sup": 544,
    "support": 545,
    "trans": 546,
    "transport": 547,
    "transportation": 548,
    "tra": 549,
    "place": 550,
    "common": 551,
    "exchange": 552,
    "communication": 553,
    "ages": 554,
    "express": 555,
    "wr": 556,
    "inv": 557,
    "invol": 558,
    "provides": 559,
    "answer": 560,
    "simple": 561,
    "others": 562,
    "explanation": 563,
    "compar": 564,
    "problem": 565,
    "make": 566,
    "decis": 567,
    "sing": 568,
    "complex": 569,
    "mat": 570,
    "relations": 571,
    "relationsh": 572,
    "relationshi": 573,
    "relationships": 574,
    "structures": 575,
    "represent": 576,
    "conce": 577,
    "concep": 578,
    "concepts": 579,
    "oper": 580,
    "qual": 581,
    "same": 582,
    "cal": 583,
    "organize": 584,
    "condit": 585,
    "conditions": 586,
    "ogra": 587,
    "phy": 588,
    "ener": 589,
    "gy": 590,
    "di": 591,
    "lee": 592,
    "leep": 593,
    "During": 594,
    "memor": 595,
    "edu": 596,
    "skill": 597,
    "each": 598,
    "subjects": 599,
    "ob": 600,
    "observ": 601,
    "scientif": 602,
    "scientific": 603,
    "idea": 604,
    "compare": 605,
    "Th": 606,
    "access": 607,
    "put": 608,
    "ware": 609,
    "gramm": 610,
    "languages": 611,
    "services": 612,
    "applic": 613,
    "rece": 614,
    "receives": 615,
    "ore": 616,
    "ses": 617,
    "inte": 618,
    "cer": 619,
    "reco": 620,
    "recog": 621,
    "recogn": 622,
    "predictions": 623,
    "problems": 624,
    "system": 625,
    "during": 626,
    "parame": 627,
    "parameters": 628,
    "sequ": 629,
    "smaller": 630,
    "voc": 631,
    "vocab": 632,
    "vocabular": 633,
    "vocabulary": 634,
    "identifiers": 635,
    "num": 636,
    "valu": 637,
    "vectors": 638,
    "good": 639,
    "sentence": 640,
    "they": 641,
    "often": 642,
    "fore": 643,
    "ilities": 644,
    "bject": 645,
    "proje": 646,
    "duce": 647,
    "oss": 648,
    "expect": 649,
    "expected": 650,
    "depend": 651,
    "morning": 652,
    "was": 653,
    "most": 654,
    "building": 655,
    "buildings": 656,
    "began": 657,
    "ris": 658,
    "side": 659,
    "dail": 660,
    "daily": 661,
    "vill": 662,
    "villa": 663,
    "village": 664,
    "surround": 665,
    "mountains": 666,
    "river": 667,
    "mar": 668,
    "wher": 669,
    "where": 670,
    "Learn": 671,
    "Learning": 672,
    "practice": 673,
    "af": 674,
    "ercis": 675,
    "ercise": 676,
    "repe": 677,
    "mistakes": 678,
    "ial": 679,
    "Pl": 680,
    "Plan": 681,
    "anim": 682,
    "animal": 683,
    "animals": 684,
    "ive": 685,
    "dr": 686,
    "drin": 687,
    "agr": 688,
    "agricult": 689,
    "amount": 690,
    "var": 691,
    "world": 692,
    "Sun": 693,
    "rot": 694,
    "own": 695,
    "cycle": 696,
    "ment": 697,
    "ye": 698,
    "year": 699,
    "lu": 700,
    "clim": 701,
    "spec": 702,
    "environments": 703,
    "organis": 704,
    "organisms": 705,
    "forest": 706,
    "food": 707,
    "inter": 708,
    "another": 709,
    "Ch": 710,
    "tem": 711,
    "temperature": 712,
    "activity": 713,
    "Histor": 714,
    "study": 715,
    "maps": 716,
    "sign": 717,
    "provided": 718,
    "oceans": 719,
    "routes": 720,
    "fer": 721,
    "ural": 722,
    "who": 723,
    "sh": 724,
    "Comm": 725,
    "Commun": 726,
    "oods": 727,
    "schools": 728,
    "places": 729,
    "onl": 730,
    "online": 731,
    "spa": 732,
    "spaces": 733,
    "through": 734,
    "images": 735,
    "writ": 736,
    "ess": 737,
    "convers": 738,
    "involves": 739,
    "partic": 740,
    "question": 741,
    "att": 742,
    "attent": 743,
    "attention": 744,
    "deta": 745,
    "iled": 746,
    "ual": 747,
    "solution": 748,
    "decisions": 749,
    "choosing": 750,
    "hemat": 751,
    "bers": 752,
    "measurements": 753,
    "dition": 754,
    "bas": 755,
    "tri": 756,
    "three": 757,
    "sides": 758,
    "angles": 759,
    "four": 760,
    "set": 761,
    "istan": 762,
    "istance": 763,
    "using": 764,
    "recor": 765,
    "describes": 766,
    "atmo": 767,
    "atmosp": 768,
    "atmospher": 769,
    "lim": 770,
    "long": 771,
    "Diff": 772,
    "Different": 773,
    "itude": 774,
    "geogra": 775,
    "energy": 776,
    "nut": 777,
    "nutri": 778,
    "nutrients": 779,
    "bod": 780,
    "body": 781,
    "incl": 782,
    "inclu": 783,
    "include": 784,
    "phys": 785,
    "physical": 786,
    "sleep": 787,
    "maintain": 788,
    "nor": 789,
    "fun": 790,
    "funct": 791,
    "function": 792,
    "lib": 793,
    "libr": 794,
    "librar": 795,
    "books": 796,
    "computers": 797,
    "igit": 798,
    "igital": 799,
    "cation": 800,
    "students": 801,
    "skills": 802,
    "experim": 803,
    "observation": 804,
    "test": 805,
    "arch": 806,
    "resul": 807,
    "results": 808,
    "finding": 809,
    "This": 810,
    "kn": 811,
    "know": 812,
    "travel": 813,
    "calc": 814,
    "calcul": 815,
    "computer": 816,
    "software": 817,
    "processing": 818,
    "displ": 819,
    "display": 820,
    "networ": 821,
    "networks": 822,
    "tro": 823,
    "In": 824,
    "Inter": 825,
    "Internet": 826,
    "llab": 827,
    "llabor": 828,
    "ase": 829,
    "atch": 830,
    "brow": 831,
    "browser": 832,
    "webs": 833,
    "websit": 834,
    "websites": 835,
    "applications": 836,
    "Wh": 837,
    "When": 838,
    "store": 839,
    "up": 840,
    "intell": 841,
    "intellig": 842,
    "intelligence": 843,
    "fi": 844,
    "izing": 845,
    "solv": 846,
    "sequences": 847,
    "tokeniz": 848,
    "tokenizer": 849,
    "them": 850,
    "An": 851,
    "emb": 852,
    "embed": 853,
    "embedding": 854,
    "represents": 855,
    "numer": 856,
    "numerical": 857,
    "these": 858,
    "prediction": 859,
    "dients": 860,
    "Repe": 861,
    "sty": 862,
    "corp": 863,
    "corpus": 864,
    "kil": 865,
    "mod": 866,
    "prepar": 867,
    "sch": 868,
    "schedu": 869,
    "schedule": 870,
    "about": 871,
    "feat": 872,
    "features": 873,
    "customers": 874,
    "pr": 875,
    "prices": 876,
    "Customers": 877,
    "order": 878,
    "fut": 879,
    "future": 880,
    "bud": 881,
    "budge": 882,
    "budget": 883,
    "contain": 884,
    "expen": 885,
    "expenses": 886,
    "iable": 887,
    "finan": 888,
    "financial": 889,
    "resp": 890,
    "respons": 891,
    "responsib": 892,
    "responsibilities": 893,
    "tea": 894,
    "teams": 895,
    "Each": 896,
    "ger": 897,
    "project": 898,
    "go": 899,
    "goal": 900,
    "reduce": 901,
    "certain": 902,
    "certainty": 903,
    "ently": 904,
    "ways": 905,
    "situ": 906,
    "situations": 907,
    "eas": 908,
    "easi": 909,
    "easier": 910,
    "ined": 911,
    "comb": 912,
    "produce": 913,
    "better": 914,
    "solutions": 915,
    "but": 916,
    "clear": 917,
    "subject": 918,
    "meaning": 919,
    "depending": 920,
    "word": 921,
    "there": 922,
    "therefore": 923,
    "Reading": 924,
    "expos": 925,
    "enco": 926,
    "recognize": 927,
    "ible": 928,
    "adv": 929,
    "advan": 930,
    "advanta": 931,
    "advantages": 932,
    "plans": 933,
    "hether": 934,
    "network": 935,
    "predicting": 936,
    "simpl": 937,
    "simply": 938,
    "loss": 939,
    "quiet": 940,
    "stree": 941,
    "streets": 942,
    "were": 943,
    "almost": 944,
    "emp": 945,
    "empty": 946,
    "light": 947,
    "appe": 948,
    "appeare": 949,
    "appeared": 950,
    "abo": 951,
    "above": 952,
    "sun": 953,
    "rise": 954,
    "sl": 955,
    "slow": 956,
    "slowly": 957,
    "wal": 958,
    "walk": 959,
    "walked": 960,
    "outside": 961,
    "star": 962,
    "start": 963,
    "started": 964,
    "routines": 965,
    "yo": 966,
    "youn": 967,
    "young": 968,
    "student": 969,
    "open": 970,
    "opened": 971,
    "described": 972,
    "surrounded": 973,
    "fores": 974,
    "forests": 975,
    "had": 976,
    "hous": 977,
    "houses": 978,
    "mark": 979,
    "market": 980,
    "gather": 981,
    "gathered": 982,
    "expert": 983,
    "after": 984,
    "reading": 985,
    "complet": 986,
    "completing": 987,
    "exercise": 988,
    "Prog": 989,
    "Progress": 990,
    "comes": 991,
    "repeating": 992,
    "try": 993,
    "trying": 994,
    "aga": 995,
    "again": 996,
    "Water": 997,
    "essent": 998,
    "essential": 999,
    "Plants": 1000,
    "grow": 1001,
    "surv": 1002,
    "survive": 1003,
    "humans": 1004,
    "drinking": 1005,
    "coo": 1006,
    "cooking": 1007,
    "cleaning": 1008,
    "agriculture": 1009,
    "fres": 1010,
    "fresh": 1011,
    "varies": 1012,
    "great": 1013,
    "greatly": 1014,
    "planet": 1015,
    "moves": 1016,
    "rotates": 1017,
    "ax": 1018,
    "axis": 1019,
    "rotation": 1020,
    "night": 1021,
    "move": 1022,
    "movement": 1023,
    "related": 1024,
    "yearly": 1025,
    "seas": 1026,
    "seasons": 1027,
    "ocean": 1028,
    "covers": 1029,
    "surfa": 1030,
    "surface": 1031,
    "Oce": 1032,
    "Oceans": 1033,
    "inf": 1034,
    "influ": 1035,
    "influence": 1036,
    "climate": 1037,
    "eco": 1038,
    "ecosystems": 1039,
    "Man": 1040,
    "Many": 1041,
    "species": 1042,
    "live": 1043,
    "marine": 1044,
    "whal": 1045,
    "whales": 1046,
    "forms": 1047,
    "Tre": 1048,
    "Trees": 1049,
    "shel": 1050,
    "shelter": 1051,
    "plants": 1052,
    "inse": 1053,
    "insects": 1054,
    "bir": 1055,
    "birds": 1056,
    "mic": 1057,
    "micro": 1058,
    "microorganisms": 1059,
    "interact": 1060,
    "Chang": 1061,
    "Changes": 1062,
    "rainf": 1063,
    "rainfall": 1064,
    "affe": 1065,
    "affect": 1066,
    "heal": 1067,
    "health": 1068,
    "History": 1069,
    "hap": 1070,
    "happen": 1071,
    "happened": 1072,
    "pas": 1073,
    "past": 1074,
    "Histori": 1075,
    "Historians": 1076,
    "doc": 1077,
    "docu": 1078,
    "documents": 1079,
    "liv": 1080,
    "lived": 1081,
    "soci": 1082,
    "societ": 1083,
    "societies": 1084,
    "Cities": 1085,
    "signific": 1086,
    "significant": 1087,
    "significantly": 1088,
    "througho": 1089,
    "throughout": 1090,
    "histor": 1091,
    "history": 1092,
    "grew": 1093,
    "supported": 1094,
    "Other": 1095,
    "developed": 1096,
    "near": 1097,
    "trade": 1098,
    "mines": 1099,
    "fert": 1100,
    "fertile": 1101,
    "agricultural": 1102,
    "community": 1103,
    "made": 1104,
    "share": 1105,
    "interest": 1106,
    "Communities": 1107,
    "They": 1108,
    "exist": 1109,
    "neigh": 1110,
    "neighb": 1111,
    "neighbor": 1112,
    "neighborh": 1113,
    "neighborhoods": 1114,
    "workplaces": 1115,
    "Communic": 1116,
    "Communication": 1117,
    "Langua": 1118,
    "Language": 1119,
    "tool": 1120,
    "tools": 1121,
    "gest": 1122,
    "gestures": 1123,
    "sound": 1124,
    "sounds": 1125,
    "facial": 1126,
    "expressions": 1127,
    "writt": 1128,
    "written": 1129,
    "mess": 1130,
    "messages": 1131,
    "conversation": 1132,
    "partici": 1133,
    "particip": 1134,
    "participan": 1135,
    "participants": 1136,
    "One": 1137,
    "Good": 1138,
    "clar": 1139,
    "clarity": 1140,
    "detailed": 1141,
    "reas": 1142,
    "reason": 1143,
    "reasoning": 1144,
    "fact": 1145,
    "factual": 1146,
    "comparis": 1147,
    "comparison": 1148,
    "opin": 1149,
    "opinion": 1150,
    "eat": 1151,
    "more": 1152,
    "care": 1153,
    "career": 1154,
    "dec": 1155,
    "decid": 1156,
    "deciding": 1157,
    "solve": 1158,
    "Mat": 1159,
    "Mathemat": 1160,
    "Mathematic": 1161,
    "Mathematics": 1162,
    "quant": 1163,
    "quantities": 1164,
    "Num": 1165,
    "Numbers": 1166,
    "pos": 1167,
    "posit": 1168,
    "positions": 1169,
    "abst": 1170,
    "abstract": 1171,
    "Ad": 1172,
    "Addition": 1173,
    "sub": 1174,
    "subt": 1175,
    "subtract": 1176,
    "subtraction": 1177,
    "mult": 1178,
    "multi": 1179,
    "multiplic": 1180,
    "multiplication": 1181,
    "divis": 1182,
    "division": 1183,
    "basic": 1184,
    "mathemat": 1185,
    "mathematical": 1186,
    "operations": 1187,
    "triang": 1188,
    "triangle": 1189,
    "squ": 1190,
    "square": 1191,
    "equal": 1192,
    "rig": 1193,
    "righ": 1194,
    "right": 1195,
    "cir": 1196,
    "circle": 1197,
    "defin": 1198,
    "defined": 1199,
    "po": 1200,
    "poin": 1201,
    "points": 1202,
    "distance": 1203,
    "cent": 1204,
    "center": 1205,
    "Tim": 1206,
    "Time": 1207,
    "secon": 1208,
    "seconds": 1209,
    "min": 1210,
    "minut": 1211,
    "minutes": 1212,
    "hour": 1213,
    "hours": 1214,
    "days": 1215,
    "mon": 1216,
    "month": 1217,
    "months": 1218,
    "years": 1219,
    "cloc": 1220,
    "clocks": 1221,
    "calen": 1222,
    "calend": 1223,
    "calendar": 1224,
    "calendars": 1225,
    "record": 1226,
    "We": 1227,
    "Weather": 1228,
    "atmosphere": 1229,
    "particular": 1230,
    "Tem": 1231,
    "Temperature": 1232,
    "hum": 1233,
    "humid": 1234,
    "humidity": 1235,
    "win": 1236,
    "wind": 1237,
    "air": 1238,
    "press": 1239,
    "pressure": 1240,
    "preci": 1241,
    "precip": 1242,
    "precipit": 1243,
    "precipitation": 1244,
    "ele": 1245,
    "elements": 1246,
    "Clim": 1247,
    "Climate": 1248,
    "typ": 1249,
    "typical": 1250,
    "mu": 1251,
    "much": 1252,
    "longer": 1253,
    "peri": 1254,
    "period": 1255,
    "climates": 1256,
    "lat": 1257,
    "latitude": 1258,
    "alt": 1259,
    "altitude": 1260,
    "geography": 1261,
    "atmospheric": 1262,
    "Food": 1263,
    "needed": 1264,
    "bal": 1265,
    "balan": 1266,
    "balanc": 1267,
    "balanced": 1268,
    "diet": 1269,
    "vege": 1270,
    "vegeta": 1271,
    "vegetab": 1272,
    "vegetables": 1273,
    "fr": 1274,
    "fru": 1275,
    "fruits": 1276,
    "grain": 1277,
    "grains": 1278,
    "prote": 1279,
    "protein": 1280,
    "proteins": 1281,
    "sour": 1282,
    "sources": 1283,
    "Ex": 1284,
    "Exercise": 1285,
    "fit": 1286,
    "fitn": 1287,
    "fitness": 1288,
    "gener": 1289,
    "general": 1290,
    "well": 1291,
    "being": 1292,
    "Wal": 1293,
    "Walking": 1294,
    "run": 1295,
    "running": 1296,
    "sw": 1297,
    "swim": 1298,
    "swimm": 1299,
    "swimming": 1300,
    "cycl": 1301,
    "cycling": 1302,
    "stren": 1303,
    "streng": 1304,
    "strength": 1305,
    "Sleep": 1306,
    "brain": 1307,
    "norm": 1308,
    "normal": 1309,
    "Reg": 1310,
    "Regular": 1311,
    "memory": 1312,
    "library": 1313,
    "Mod": 1314,
    "Moder": 1315,
    "Modern": 1316,
    "libraries": 1317,
    "digital": 1318,
    "education": 1319,
    "educational": 1320,
    "environment": 1321,
    "Teach": 1322,
    "Teachers": 1323,
    "expla": 1324,
    "explain": 1325,
    "Edu": 1326,
    "Education": 1327,
    "limit": 1328,
    "limited": 1329,
    "conversations": 1330,
    "experiments": 1331,
    "personal": 1332,
    "experi": 1333,
    "experience": 1334,
    "experiment": 1335,
    "design": 1336,
    "designed": 1337,
    "hy": 1338,
    "hyp": 1339,
    "hypoth": 1340,
    "hypothes": 1341,
    "hypothesis": 1342,
    "Rese": 1343,
    "Research": 1344,
    "Researchers": 1345,
    "col": 1346,
    "colle": 1347,
    "collect": 1348,
    "observations": 1349,
    "findings": 1350,
    "evalu": 1351,
    "evaluate": 1352,
    "explanations": 1353,
    "Sci": 1354,
    "Science": 1355,
    "depends": 1356,
    "becomes": 1357,
    "knowle": 1358,
    "knowled": 1359,
    "knowledge": 1360,
    "Te": 1361,
    "Tech": 1362,
    "Techno": 1363,
    "Technol": 1364,
    "Technolo": 1365,
    "Technology": 1366,
    "Com": 1367,
    "Comput": 1368,
    "Computers": 1369,
    "amounts": 1370,
    "calculations": 1371,
    "quic": 1372,
    "quick": 1373,
    "quickly": 1374,
    "fo": 1375,
    "foll": 1376,
    "follow": 1377,
    "follows": 1378,
    "instruct": 1379,
    "instructions": 1380,
    "Soft": 1381,
    "Software": 1382,
    "created": 1383,
    "programm": 1384,
    "programming": 1385,
    "displaying": 1386,
    "communicating": 1387,
    "contro": 1388,
    "controll": 1389,
    "controlling": 1390,
    "dev": 1391,
    "devices": 1392,
    "conne": 1393,
    "connects": 1394,
    "collabor": 1395,
    "collaborate": 1396,
    "pur": 1397,
    "purch": 1398,
    "purchase": 1399,
    "watch": 1400,
    "med": 1401,
    "medi": 1402,
    "media": 1403,
    "users": 1404,
    "user": 1405,
    "enters": 1406,
    "add": 1407,
    "address": 1408,
    "communicates": 1409,
    "server": 1410,
    "displayed": 1411,
    "scre": 1412,
    "screen": 1413,
    "datab": 1414,
    "database": 1415,
    "Ap": 1416,
    "Applic": 1417,
    "Applications": 1418,
    "create": 1419,
    "upd": 1420,
    "update": 1421,
    "dele": 1422,
    "delete": 1423,
    "records": 1424,
    "Dat": 1425,
    "Datab": 1426,
    "Databas": 1427,
    "Databases": 1428,
    "commonly": 1429,
    "bus": 1430,
    "busines": 1431,
    "businesses": 1432,
    "Ar": 1433,
    "Art": 1434,
    "Artific": 1435,
    "Artificial": 1436,
    "fie": 1437,
    "field": 1438,
    "science": 1439,
    "concer": 1440,
    "concern": 1441,
    "concerned": 1442,
    "creating": 1443,
    "normall": 1444,
    "normally": 1445,
    "aspe": 1446,
    "aspects": 1447,
    "These": 1448,
    "recognizing": 1449,
    "solving": 1450,
    "Mach": 1451,
    "Machine": 1452,
    "meth": 1453,
    "method": 1454,
    "whic": 1455,
    "which": 1456,
    "learns": 1457,
    "adj": 1458,
    "adjus": 1459,
    "adjusts": 1460,
    "intern": 1461,
    "internal": 1462,
    "units": 1463,
    "assign": 1464,
    "assigns": 1465,
    "identifier": 1466,
    "unit": 1467,
    "then": 1468,
    "stat": 1469,
    "statist": 1470,
    "statistical": 1471,
    "values": 1472,
    "representations": 1473,
    "nex": 1474,
    "next": 1475,
    "sequence": 1476,
    "For": 1477,
    "example": 1478,
    "giv": 1479,
    "given": 1480,
    "sky": 1481,
    "blu": 1482,
    "blue": 1483,
    "compared": 1484,
    "corre": 1485,
    "correct": 1486,
    "Training": 1487,
    "repeated": 1488,
    "steps": 1489,
    "input": 1490,
    "output": 1491,
    "calculates": 1492,
    "err": 1493,
    "error": 1494,
    "computes": 1495,
    "gradients": 1496,
    "updat": 1497,
    "updates": 1498,
    "Repeating": 1499,
    "this": 1500,
    "If": 1501,
    "only": 1502,
    "nar": 1503,
    "narrow": 1504,
    "type": 1505,
    "special": 1506,
    "specializ": 1507,
    "specialized": 1508,
    "style": 1509,
    "divers": 1510,
    "diverse": 1511,
    "expose": 1512,
    "writing": 1513,
    "styles": 1514,
    "numbers": 1515,
    "Distance": 1516,
    "meters": 1517,
    "kilome": 1518,
    "kilometers": 1519,
    "weight": 1520,
    "grams": 1521,
    "kilogra": 1522,
    "kilograms": 1523,
    "degre": 1524,
    "degrees": 1525,
    "Ce": 1526,
    "Cel": 1527,
    "Cels": 1528,
    "Celsi": 1529,
    "Celsius": 1530,
    "Fa": 1531,
    "Fah": 1532,
    "Fahr": 1533,
    "Fahren": 1534,
    "Fahrenhe": 1535,
    "Fahrenheit": 1536,
    "Tra": 1537,
    "Travel": 1538,
    "disco": 1539,
    "discover": 1540,
    "cult": 1541,
    "cultures": 1542,
    "trip": 1543,
    "involve": 1544,
    "planning": 1545,
    "accom": 1546,
    "accommod": 1547,
    "accommodation": 1548,
    "preparing": 1549,
    "loc": 1550,
    "local": 1551,
    "custo": 1552,
    "customs": 1553,
    "map": 1554,
    "geograph": 1555,
    "geographical": 1556,
    "area": 1557,
    "Map": 1558,
    "Maps": 1559,
    "show": 1560,
    "roa": 1561,
    "roads": 1562,
    "bord": 1563,
    "borders": 1564,
    "Digital": 1565,
    "estim": 1566,
    "estimated": 1567,
    "times": 1568,
    "resta": 1569,
    "restaur": 1570,
    "restaurant": 1571,
    "prepares": 1572,
    "drinks": 1573,
    "men": 1574,
    "menu": 1575,
    "list": 1576,
    "dish": 1577,
    "dishes": 1578,
    "choose": 1579,
    "want": 1580,
    "sell": 1581,
    "sells": 1582,
    "Produ": 1583,
    "Products": 1584,
    "siz": 1585,
    "sizes": 1586,
    "qualities": 1587,
    "before": 1588,
    "decision": 1589,
    "Money": 1590,
    "goods": 1591,
    "save": 1592,
    "needs": 1593,
    "spen": 1594,
    "spend": 1595,
    "helps": 1596,
    "will": 1597,
    "incom": 1598,
    "income": 1599,
    "fix": 1600,
    "fixed": 1601,
    "variable": 1602,
    "sav": 1603,
    "saving": 1604,
    "savings": 1605,
    "divides": 1606,
    "team": 1607,
    "specific": 1608,
    "object": 1609,
    "objectives": 1610,
    "Cooper": 1611,
    "Cooperation": 1612,
    "complete": 1613,
    "larger": 1614,
    "projects": 1615,
    "divided": 1616,
    "parts": 1617,
    "Planning": 1618,
    "uncertainty": 1619,
    "ef": 1620,
    "eff": 1621,
    "effic": 1622,
    "effici": 1623,
    "efficiently": 1624,
    "always": 1625,
    "remain": 1626,
    "unchanged": 1627,
    "changes": 1628,
    "Proble": 1629,
    "Problems": 1630,
    "solved": 1631,
    "bre": 1632,
    "brea": 1633,
    "breaking": 1634,
    "appro": 1635,
    "approach": 1636,
    "makes": 1637,
    "anal": 1638,
    "analy": 1639,
    "analyz": 1640,
    "analyze": 1641,
    "examined": 1642,
    "separ": 1643,
    "separate": 1644,
    "separately": 1645,
    "toge": 1646,
    "together": 1647,
    "combine": 1648,
    "perspect": 1649,
    "perspectives": 1650,
    "Collabor": 1651,
    "Collaboration": 1652,
    "coord": 1653,
    "coordin": 1654,
    "coordination": 1655,
    "organized": 1656,
    "intro": 1657,
    "introduce": 1658,
    "rele": 1659,
    "relev": 1660,
    "relevant": 1661,
    "detail": 1662,
    "details": 1663,
    "reader": 1664,
    "grammat": 1665,
    "grammatical": 1666,
    "Ev": 1667,
    "Even": 1668,
    "expressed": 1669,
    "verb": 1670,
    "addition": 1671,
    "additional": 1672,
    "Sent": 1673,
    "Sentences": 1674,
    "short": 1675,
    "sentences": 1676,
    "combined": 1677,
    "para": 1678,
    "paragra": 1679,
    "paragraph": 1680,
    "Wor": 1681,
    "Words": 1682,
    "meanings": 1683,
    "actions": 1684,
    "Un": 1685,
    "Und": 1686,
    "Understand": 1687,
    "Understanding": 1688,
    "exposes": 1689,
    "expressing": 1690,
    "Wr": 1691,
    "Writ": 1692,
    "Writing": 1693,
    "preser": 1694,
    "preserve": 1695,
    "Cur": 1696,
    "Curi": 1697,
    "Curios": 1698,
    "Curiosity": 1699,
    "encou": 1700,
    "encoura": 1701,
    "encourages": 1702,
    "expl": 1703,
    "explore": 1704,
    "unf": 1705,
    "unfam": 1706,
    "unfamil": 1707,
    "unfamili": 1708,
    "unfamiliar": 1709,
    "As": 1710,
    "Asking": 1711,
    "fir": 1712,
    "first": 1713,
    "step": 1714,
    "tow": 1715,
    "towar": 1716,
    "toward": 1717,
    "top": 1718,
    "topic": 1719,
    "mistak": 1720,
    "mistake": 1721,
    "necess": 1722,
    "necessar": 1723,
    "necessaril": 1724,
    "necessarily": 1725,
    "mean": 1726,
    "failed": 1727,
    "Mis": 1728,
    "Mistakes": 1729,
    "went": 1730,
    "wrong": 1731,
    "could": 1732,
    "Practice": 1733,
    "Repeated": 1734,
    "speed": 1735,
    "conf": 1736,
    "confidence": 1737,
    "poss": 1738,
    "possible": 1739,
    "Choo": 1740,
    "Choosing": 1741,
    "comparing": 1742,
    "disadvantages": 1743,
    "cost": 1744,
    "costs": 1745,
    "risks": 1746,
    "based": 1747,
    "unexpected": 1748,
    "reliable": 1749,
    "understandable": 1750,
    "maintainable": 1751,
    "Whether": 1752,
    "application": 1753,
    "operate": 1754,
    "exposure": 1755,
    "grammar": 1756,
    "structure": 1757,
    "texts": 1758,
    "learner": 1759,
    "faces": 1760,
    "simil": 1761,
    "similar": 1762,
    "mus": 1763,
    "must": 1764,
    "Con": 1765,
    "Context": 1766,
    "ban": 1767,
    "bank": 1768,
    "refer": 1769,
    "inst": 1770,
    "instit": 1771,
    "institut": 1772,
    "institution": 1773,
    "surrounding": 1774,
    "memorize": 1775,
    "indiv": 1776,
    "individ": 1777,
    "individual": 1778,
    "plaus": 1779,
    "plausible": 1780,
    "cannot": 1781,
    "everyth": 1782,
    "everything": 1783,
    "Its": 1784,
    "cap": 1785,
    "capab": 1786,
    "capabilities": 1787,
    "strong": 1788,
    "strongly": 1789,
    "size": 1790,
    "quality": 1791,
    "archit": 1792,
    "archite": 1793,
    "architect": 1794,
    "architecture": 1795,
    "computation": 1796,
    "Building": 1797,
    "sc": 1798,
    "scr": 1799,
    "scratch": 1800,
    "mach": 1801,
    "machine": 1802,
    "compon": 1803,
    "component": 1804,
    "inspe": 1805,
    "inspect": 1806,
    "inspected": 1807,
    "tested": 1808,
    "modif": 1809,
    "modifi": 1810,
    "modified": 1811,
    "independ": 1812,
    "independently": 1813,
    "raw": 1814,
    "encod": 1815,
    "encoder": 1816,
    "integer": 1817,
    "lay": 1818,
    "layer": 1819,
    "neural": 1820,
    "compares": 1821,
    "differ": 1822,
    "difference": 1823,
    "represented": 1824,
    "value": 1825,
    "Gra": 1826,
    "Gradients": 1827,
    "indic": 1828,
    "indicate": 1829,
    "Af": 1830,
    "After": 1831,
    "iter": 1832,
    "iterations": 1833,
    "Evalu": 1834,
    "Evaluation": 1835,
    "deter": 1836,
    "determ": 1837,
    "determine": 1838,
    "whether": 1839,
    "learned": 1840,
    "rather": 1841,
    "than": 1842,
    "memorizing": 1843
}